{
    "<pad>": 0,
    "<unk>": 1,
    "<bos>": 2,
    "<eos>": 3,
    "<|user|>": 4,
    "<|assistant|>": 5,
    "<|system|>": 6,
    "\u0001": 7,
    "\u0002": 8,
    "\u0004": 9,
    "\u000e": 10,
    "\u0010": 11,
    "\u0015": 12,
    "\u0017": 13,
    "\u0018": 14,
    "\u0019": 15,
    "\u001a": 16,
    "\u001b": 17,
    "!": 18,
    "\"": 19,
    "#": 20,
    "$": 21,
    "%": 22,
    "&": 23,
    "'": 24,
    "(": 25,
    ")": 26,
    "*": 27,
    "+": 28,
    ",": 29,
    "-": 30,
    ".": 31,
    "/": 32,
    "0": 33,
    "1": 34,
    "2": 35,
    "3": 36,
    "4": 37,
    "5": 38,
    "6": 39,
    "7": 40,
    "8": 41,
    "9": 42,
    ":": 43,
    ";": 44,
    "<": 45,
    "</w>": 46,
    "=": 47,
    ">": 48,
    "?": 49,
    "@": 50,
    "A": 51,
    "B": 52,
    "C": 53,
    "D": 54,
    "E": 55,
    "F": 56,
    "G": 57,
    "H": 58,
    "I": 59,
    "J": 60,
    "K": 61,
    "L": 62,
    "M": 63,
    "N": 64,
    "O": 65,
    "P": 66,
    "Q": 67,
    "R": 68,
    "S": 69,
    "T": 70,
    "U": 71,
    "V": 72,
    "W": 73,
    "X": 74,
    "Y": 75,
    "Z": 76,
    "[": 77,
    "\\": 78,
    "]": 79,
    "^": 80,
    "_": 81,
    "`": 82,
    "a": 83,
    "b": 84,
    "c": 85,
    "d": 86,
    "e": 87,
    "f": 88,
    "g": 89,
    "h": 90,
    "i": 91,
    "j": 92,
    "k": 93,
    "l": 94,
    "m": 95,
    "n": 96,
    "o": 97,
    "p": 98,
    "q": 99,
    "r": 100,
    "s": 101,
    "t": 102,
    "u": 103,
    "v": 104,
    "w": 105,
    "x": 106,
    "y": 107,
    "z": 108,
    "{": 109,
    "|": 110,
    "}": 111,
    "~": 112,
    "¡": 113,
    "¢": 114,
    "£": 115,
    "¥": 116,
    "¦": 117,
    "§": 118,
    "¨": 119,
    "©": 120,
    "ª": 121,
    "«": 122,
    "¬": 123,
    "­": 124,
    "®": 125,
    "¯": 126,
    "°": 127,
    "±": 128,
    "²": 129,
    "³": 130,
    "´": 131,
    "µ": 132,
    "¶": 133,
    "·": 134,
    "¸": 135,
    "¹": 136,
    "º": 137,
    "»": 138,
    "¼": 139,
    "½": 140,
    "¾": 141,
    "¿": 142,
    "Á": 143,
    "Â": 144,
    "Ä": 145,
    "Å": 146,
    "Æ": 147,
    "Ç": 148,
    "È": 149,
    "É": 150,
    "Ê": 151,
    "Ë": 152,
    "Í": 153,
    "Î": 154,
    "Ï": 155,
    "Ñ": 156,
    "Õ": 157,
    "Ö": 158,
    "×": 159,
    "Ø": 160,
    "Ù": 161,
    "Ú": 162,
    "ß": 163,
    "à": 164,
    "á": 165,
    "â": 166,
    "ã": 167,
    "ä": 168,
    "å": 169,
    "æ": 170,
    "ç": 171,
    "è": 172,
    "é": 173,
    "ê": 174,
    "ë": 175,
    "ì": 176,
    "í": 177,
    "î": 178,
    "ï": 179,
    "ð": 180,
    "ñ": 181,
    "ò": 182,
    "ó": 183,
    "ô": 184,
    "õ": 185,
    "ö": 186,
    "÷": 187,
    "ø": 188,
    "ù": 189,
    "ú": 190,
    "û": 191,
    "ü": 192,
    "ý": 193,
    "þ": 194,
    "ÿ": 195,
    "ā": 196,
    "ă": 197,
    "ą": 198,
    "ć": 199,
    "č": 200,
    "Đ": 201,
    "đ": 202,
    "ē": 203,
    "ě": 204,
    "ģ": 205,
    "ī": 206,
    "İ": 207,
    "ı": 208,
    "ĺ": 209,
    "ļ": 210,
    "Ł": 211,
    "ł": 212,
    "ń": 213,
    "ŋ": 214,
    "ō": 215,
    "Ő": 216,
    "ő": 217,
    "Œ": 218,
    "œ": 219,
    "ŕ": 220,
    "ś": 221,
    "ş": 222,
    "ţ": 223,
    "ū": 224,
    "Ű": 225,
    "ű": 226,
    "ƒ": 227,
    "ư": 228,
    "ǎ": 229,
    "ǔ": 230,
    "ǝ": 231,
    "ș": 232,
    "ɔ": 233,
    "ə": 234,
    "ɛ": 235,
    "ɞ": 236,
    "ɥ": 237,
    "ɨ": 238,
    "ɪ": 239,
    "ʀ": 240,
    "ʌ": 241,
    "ʒ": 242,
    "ʔ": 243,
    "ʕ": 244,
    "ʖ": 245,
    "ʘ": 246,
    "ʰ": 247,
    "ʳ": 248,
    "ʷ": 249,
    "ʸ": 250,
    "ʻ": 251,
    "ʿ": 252,
    "ˆ": 253,
    "ˈ": 254,
    "ˊ": 255,
    "ː": 256,
    "˗": 257,
    "˚": 258,
    "˛": 259,
    "˜": 260,
    "ˡ": 261,
    "ˢ": 262,
    "˶": 263,
    "̀": 264,
    "́": 265,
    "̂": 266,
    "̃": 267,
    "̄": 268,
    "̅": 269,
    "̆": 270,
    "̇": 271,
    "̈": 272,
    "̉": 273,
    "̊": 274,
    "̋": 275,
    "̌": 276,
    "̍": 277,
    "̎": 278,
    "̏": 279,
    "̐": 280,
    "̑": 281,
    "̒": 282,
    "̓": 283,
    "̔": 284,
    "̕": 285,
    "̖": 286,
    "̗": 287,
    "̘": 288,
    "̙": 289,
    "̚": 290,
    "̛": 291,
    "̜": 292,
    "̝": 293,
    "̞": 294,
    "̟": 295,
    "̠": 296,
    "̡": 297,
    "̢": 298,
    "̣": 299,
    "̤": 300,
    "̥": 301,
    "̦": 302,
    "̧": 303,
    "̨": 304,
    "̩": 305,
    "̪": 306,
    "̫": 307,
    "̬": 308,
    "̭": 309,
    "̮": 310,
    "̯": 311,
    "̰": 312,
    "̱": 313,
    "̲": 314,
    "̳": 315,
    "̴": 316,
    "̵": 317,
    "̶": 318,
    "̷": 319,
    "̸": 320,
    "̹": 321,
    "̺": 322,
    "̻": 323,
    "̼": 324,
    "̽": 325,
    "̾": 326,
    "̿": 327,
    "̀": 328,
    "́": 329,
    "͂": 330,
    "̓": 331,
    "̈́": 332,
    "ͅ": 333,
    "͆": 334,
    "͇": 335,
    "͈": 336,
    "͉": 337,
    "͊": 338,
    "͋": 339,
    "͌": 340,
    "͍": 341,
    "͎": 342,
    "͏": 343,
    "͐": 344,
    "͑": 345,
    "͒": 346,
    "͓": 347,
    "͔": 348,
    "͕": 349,
    "͖": 350,
    "͗": 351,
    "͘": 352,
    "͙": 353,
    "͚": 354,
    "͛": 355,
    "͜": 356,
    "͝": 357,
    "͞": 358,
    "͟": 359,
    "͠": 360,
    "͡": 361,
    "͢": 362,
    "ͣ": 363,
    "ͤ": 364,
    "ͥ": 365,
    "ͦ": 366,
    "ͧ": 367,
    "ͨ": 368,
    "ͩ": 369,
    "ͪ": 370,
    "ͫ": 371,
    "ͬ": 372,
    "ͭ": 373,
    "ͮ": 374,
    "ͯ": 375,
    "Η": 376,
    "Θ": 377,
    "Ξ": 378,
    "Π": 379,
    "Σ": 380,
    "Χ": 381,
    "Ω": 382,
    "ή": 383,
    "α": 384,
    "β": 385,
    "γ": 386,
    "δ": 387,
    "ε": 388,
    "ζ": 389,
    "η": 390,
    "θ": 391,
    "ι": 392,
    "κ": 393,
    "λ": 394,
    "μ": 395,
    "ν": 396,
    "ξ": 397,
    "ο": 398,
    "π": 399,
    "ρ": 400,
    "ς": 401,
    "σ": 402,
    "τ": 403,
    "υ": 404,
    "φ": 405,
    "χ": 406,
    "ω": 407,
    "ϰ": 408,
    "А": 409,
    "Б": 410,
    "В": 411,
    "Г": 412,
    "К": 413,
    "Л": 414,
    "М": 415,
    "Н": 416,
    "О": 417,
    "П": 418,
    "Р": 419,
    "С": 420,
    "Т": 421,
    "Ц": 422,
    "Ч": 423,
    "Ш": 424,
    "а": 425,
    "б": 426,
    "в": 427,
    "г": 428,
    "д": 429,
    "е": 430,
    "ж": 431,
    "з": 432,
    "и": 433,
    "й": 434,
    "к": 435,
    "л": 436,
    "м": 437,
    "н": 438,
    "о": 439,
    "п": 440,
    "р": 441,
    "с": 442,
    "т": 443,
    "у": 444,
    "ф": 445,
    "х": 446,
    "ц": 447,
    "ч": 448,
    "ш": 449,
    "ъ": 450,
    "ы": 451,
    "ь": 452,
    "э": 453,
    "ю": 454,
    "я": 455,
    "ё": 456,
    "і": 457,
    "҉": 458,
    "Ӎ": 459,
    "ִ": 460,
    "ב": 461,
    "ג": 462,
    "ה": 463,
    "ו": 464,
    "ח": 465,
    "י": 466,
    "נ": 467,
    "ר": 468,
    "ת": 469,
    "،": 470,
    "ا": 471,
    "ب": 472,
    "ة": 473,
    "ت": 474,
    "ج": 475,
    "ح": 476,
    "د": 477,
    "ر": 478,
    "س": 479,
    "ص": 480,
    "ط": 481,
    "ظ": 482,
    "ع": 483,
    "ف": 484,
    "ق": 485,
    "ك": 486,
    "ل": 487,
    "م": 488,
    "ن": 489,
    "ه": 490,
    "و": 491,
    "ى": 492,
    "ي": 493,
    "ً": 494,
    "ِ": 495,
    "١": 496,
    "٨": 497,
    "٩": 498,
    "٫": 499,
    "ٹ": 500,
    "پ": 501,
    "چ": 502,
    "ڈ": 503,
    "ک": 504,
    "گ": 505,
    "ہ": 506,
    "۶": 507,
    "ं": 508,
    "ई": 509,
    "ए": 510,
    "ओ": 511,
    "क": 512,
    "ख": 513,
    "ग": 514,
    "ज": 515,
    "ट": 516,
    "ठ": 517,
    "ड": 518,
    "त": 519,
    "थ": 520,
    "द": 521,
    "ध": 522,
    "न": 523,
    "प": 524,
    "ब": 525,
    "म": 526,
    "य": 527,
    "र": 528,
    "ल": 529,
    "श": 530,
    "ष": 531,
    "स": 532,
    "ह": 533,
    "ा": 534,
    "ि": 535,
    "ी": 536,
    "ु": 537,
    "े": 538,
    "ो": 539,
    "्": 540,
    "இ": 541,
    "க": 542,
    "த": 543,
    "ந": 544,
    "ன": 545,
    "ப": 546,
    "ய": 547,
    "ற": 548,
    "ள": 549,
    "ழ": 550,
    "வ": 551,
    "ா": 552,
    "ி": 553,
    "ு": 554,
    "்": 555,
    "ಠ": 556,
    "ಥ": 557,
    "ಪ": 558,
    "ರ": 559,
    "ೀ": 560,
    "ೃ": 561,
    "ೋ": 562,
    "್": 563,
    "ങ": 564,
    "ത": 565,
    "ദ": 566,
    "ി": 567,
    "േ": 568,
    "്": 569,
    "ก": 570,
    "ค": 571,
    "ฆ": 572,
    "ง": 573,
    "ฉ": 574,
    "ด": 575,
    "ต": 576,
    "ถ": 577,
    "น": 578,
    "บ": 579,
    "ป": 580,
    "ฟ": 581,
    "ภ": 582,
    "ม": 583,
    "ย": 584,
    "ร": 585,
    "ล": 586,
    "ว": 587,
    "ส": 588,
    "อ": 589,
    "ะ": 590,
    "ั": 591,
    "า": 592,
    "ิ": 593,
    "ี": 594,
    "ึ": 595,
    "ื": 596,
    "ุ": 597,
    "ู": 598,
    "฿": 599,
    "เ": 600,
    "แ": 601,
    "็": 602,
    "่": 603,
    "้": 604,
    "์": 605,
    "๑": 606,
    "ཀ": 607,
    "ለ": 608,
    "ል": 609,
    "መ": 610,
    "ም": 611,
    "ት": 612,
    "ቻ": 613,
    "አ": 614,
    "ኩ": 615,
    "የ": 616,
    "ᗒ": 617,
    "ᗕ": 618,
    "ᗜ": 619,
    "ᗩ": 620,
    "ᘏ": 621,
    "ᯓ": 622,
    "ᴅ": 623,
    "ᴇ": 624,
    "ᴗ": 625,
    "ᴛ": 626,
    "ᴥ": 627,
    "ᵃ": 628,
    "ᵇ": 629,
    "ᵈ": 630,
    "ᵉ": 631,
    "ᵍ": 632,
    "ᵒ": 633,
    "ᵔ": 634,
    "ᵕ": 635,
    "ᵖ": 636,
    "ᵗ": 637,
    "ᵘ": 638,
    "ᶜ": 639,
    "ᶠ": 640,
    "Ḇ": 641,
    "Ḟ": 642,
    "Ḥ": 643,
    "Ḽ": 644,
    "ạ": 645,
    "ẵ": 646,
    "ệ": 647,
    "ị": 648,
    "ọ": 649,
    "ớ": 650,
    "ờ": 651,
    "ụ": 652,
    "ừ": 653,
    "ῆ": 654,
    "​": 655,
    "‌": 656,
    "‍": 657,
    "‎": 658,
    "‐": 659,
    "–": 660,
    "—": 661,
    "―": 662,
    "‘": 663,
    "’": 664,
    "‚": 665,
    "“": 666,
    "”": 667,
    "„": 668,
    "†": 669,
    "‡": 670,
    "•": 671,
    "‣": 672,
    "…": 673,
    "‧": 674,
    "‪": 675,
    "‬": 676,
    "‰": 677,
    "′": 678,
    "″": 679,
    "‹": 680,
    "›": 681,
    "‼": 682,
    "‽": 683,
    "‿": 684,
    "⁠": 685,
    "⁦": 686,
    "⁩": 687,
    "⁰": 688,
    "ⁱ": 689,
    "⁴": 690,
    "⁵": 691,
    "⁺": 692,
    "ⁿ": 693,
    "₊": 694,
    "₎": 695,
    "₦": 696,
    "₩": 697,
    "€": 698,
    "₹": 699,
    "ℕ": 700,
    "№": 701,
    "ℝ": 702,
    "™": 703,
    "⅓": 704,
    "⅔": 705,
    "←": 706,
    "↑": 707,
    "→": 708,
    "↓": 709,
    "↔": 710,
    "↪": 711,
    "⇀": 712,
    "⇏": 713,
    "⇒": 714,
    "∀": 715,
    "∃": 716,
    "∅": 717,
    "∆": 718,
    "∈": 719,
    "∉": 720,
    "∏": 721,
    "∑": 722,
    "−": 723,
    "∙": 724,
    "√": 725,
    "∞": 726,
    "∠": 727,
    "∩": 728,
    "∪": 729,
    "∴": 730,
    "≈": 731,
    "≖": 732,
    "≠": 733,
    "≤": 734,
    "≥": 735,
    "⊂": 736,
    "⊆": 737,
    "⊙": 738,
    "⊹": 739,
    "⋆": 740,
    "⌂": 741,
    "⌘": 742,
    "⑅": 743,
    "ⓘ": 744,
    "─": 745,
    "┊": 746,
    "╭": 747,
    "╮": 748,
    "╯": 749,
    "╰": 750,
    "╹": 751,
    "▀": 752,
    "▃": 753,
    "▄": 754,
    "█": 755,
    "□": 756,
    "▲": 757,
    "▽": 758,
    "◆": 759,
    "◇": 760,
    "◉": 761,
    "◊": 762,
    "○": 763,
    "◍": 764,
    "◎": 765,
    "◜": 766,
    "◝": 767,
    "◞": 768,
    "◟": 769,
    "◡": 770,
    "★": 771,
    "☆": 772,
    "☐": 773,
    "☑": 774,
    "☕": 775,
    "☘": 776,
    "☰": 777,
    "☱": 778,
    "☲": 779,
    "☳": 780,
    "☵": 781,
    "☶": 782,
    "☷": 783,
    "☹": 784,
    "☺": 785,
    "☻": 786,
    "♀": 787,
    "♂": 788,
    "♔": 789,
    "♕": 790,
    "♖": 791,
    "♗": 792,
    "♘": 793,
    "♙": 794,
    "♚": 795,
    "♛": 796,
    "♜": 797,
    "♝": 798,
    "♞": 799,
    "♟": 800,
    "♡": 801,
    "♥": 802,
    "♦": 803,
    "♪": 804,
    "♫": 805,
    "♬": 806,
    "⚘": 807,
    "⚠": 808,
    "⚽": 809,
    "⛔": 810,
    "⛟": 811,
    "✌": 812,
    "✔": 813,
    "✝": 814,
    "✦": 815,
    "✨": 816,
    "✩": 817,
    "✫": 818,
    "✮": 819,
    "❛": 820,
    "❝": 821,
    "❞": 822,
    "❣": 823,
    "❤": 824,
    "❥": 825,
    "➜": 826,
    "➳": 827,
    "⟁": 828,
    "⠀": 829,
    "⤵": 830,
    "⨳": 831,
    "⬇": 832,
    "⬥": 833,
    "⭐": 834,
    "⭑": 835,
    "、": 836,
    "。": 837,
    "々": 838,
    "「": 839,
    "」": 840,
    "『": 841,
    "』": 842,
    "【": 843,
    "】": 844,
    "〜": 845,
    "〝": 846,
    "あ": 847,
    "ぃ": 848,
    "い": 849,
    "う": 850,
    "ぇ": 851,
    "え": 852,
    "お": 853,
    "か": 854,
    "が": 855,
    "き": 856,
    "く": 857,
    "け": 858,
    "こ": 859,
    "ご": 860,
    "さ": 861,
    "ざ": 862,
    "し": 863,
    "じ": 864,
    "す": 865,
    "せ": 866,
    "そ": 867,
    "た": 868,
    "だ": 869,
    "ち": 870,
    "っ": 871,
    "つ": 872,
    "づ": 873,
    "て": 874,
    "で": 875,
    "と": 876,
    "ど": 877,
    "な": 878,
    "に": 879,
    "ね": 880,
    "の": 881,
    "は": 882,
    "ば": 883,
    "ぱ": 884,
    "ひ": 885,
    "ふ": 886,
    "へ": 887,
    "ほ": 888,
    "ま": 889,
    "み": 890,
    "む": 891,
    "め": 892,
    "も": 893,
    "ゃ": 894,
    "や": 895,
    "ょ": 896,
    "よ": 897,
    "ら": 898,
    "り": 899,
    "る": 900,
    "れ": 901,
    "ろ": 902,
    "わ": 903,
    "を": 904,
    "ん": 905,
    "゛": 906,
    "ア": 907,
    "イ": 908,
    "ウ": 909,
    "ォ": 910,
    "オ": 911,
    "カ": 912,
    "ガ": 913,
    "キ": 914,
    "ギ": 915,
    "ク": 916,
    "グ": 917,
    "ケ": 918,
    "コ": 919,
    "ス": 920,
    "ズ": 921,
    "セ": 922,
    "ゼ": 923,
    "ソ": 924,
    "タ": 925,
    "チ": 926,
    "ッ": 927,
    "ツ": 928,
    "ト": 929,
    "ド": 930,
    "ナ": 931,
    "ニ": 932,
    "ネ": 933,
    "バ": 934,
    "ヒ": 935,
    "ビ": 936,
    "ピ": 937,
    "フ": 938,
    "ブ": 939,
    "プ": 940,
    "ペ": 941,
    "ボ": 942,
    "ポ": 943,
    "マ": 944,
    "ミ": 945,
    "ム": 946,
    "メ": 947,
    "モ": 948,
    "ヤ": 949,
    "ュ": 950,
    "ラ": 951,
    "リ": 952,
    "ル": 953,
    "レ": 954,
    "ロ": 955,
    "ヮ": 956,
    "ワ": 957,
    "ン": 958,
    "・": 959,
    "ー": 960,
    "ヾ": 961,
    "ㄹ": 962,
    "ㅅ": 963,
    "ㅋ": 964,
    "ㅠ": 965,
    "ㅡ": 966,
    "ㅤ": 967,
    "一": 968,
    "上": 969,
    "下": 970,
    "不": 971,
    "世": 972,
    "丝": 973,
    "两": 974,
    "个": 975,
    "中": 976,
    "丰": 977,
    "临": 978,
    "么": 979,
    "乎": 980,
    "也": 981,
    "乱": 982,
    "了": 983,
    "争": 984,
    "事": 985,
    "些": 986,
    "亢": 987,
    "交": 988,
    "亦": 989,
    "产": 990,
    "亮": 991,
    "人": 992,
    "什": 993,
    "仏": 994,
    "他": 995,
    "代": 996,
    "们": 997,
    "休": 998,
    "会": 999,
    "伤": 1000,
    "但": 1001,
    "体": 1002,
    "作": 1003,
    "你": 1004,
    "使": 1005,
    "來": 1006,
    "便": 1007,
    "保": 1008,
    "俩": 1009,
    "俱": 1010,
    "俺": 1011,
    "個": 1012,
    "偉": 1013,
    "做": 1014,
    "備": 1015,
    "傲": 1016,
    "像": 1017,
    "僕": 1018,
    "儿": 1019,
    "先": 1020,
    "光": 1021,
    "全": 1022,
    "关": 1023,
    "兴": 1024,
    "典": 1025,
    "养": 1026,
    "出": 1027,
    "分": 1028,
    "切": 1029,
    "別": 1030,
    "别": 1031,
    "到": 1032,
    "前": 1033,
    "力": 1034,
    "办": 1035,
    "功": 1036,
    "动": 1037,
    "動": 1038,
    "勝": 1039,
    "勢": 1040,
    "北": 1041,
    "医": 1042,
    "十": 1043,
    "半": 1044,
    "卑": 1045,
    "卓": 1046,
    "危": 1047,
    "原": 1048,
    "叔": 1049,
    "句": 1050,
    "召": 1051,
    "叮": 1052,
    "可": 1053,
    "台": 1054,
    "吃": 1055,
    "合": 1056,
    "名": 1057,
    "君": 1058,
    "吧": 1059,
    "听": 1060,
    "呢": 1061,
    "咱": 1062,
    "哦": 1063,
    "哪": 1064,
    "哭": 1065,
    "唔": 1066,
    "啊": 1067,
    "喜": 1068,
    "嘱": 1069,
    "回": 1070,
    "国": 1071,
    "在": 1072,
    "地": 1073,
    "圳": 1074,
    "场": 1075,
    "坊": 1076,
    "城": 1077,
    "壊": 1078,
    "士": 1079,
    "处": 1080,
    "変": 1081,
    "夏": 1082,
    "外": 1083,
    "夜": 1084,
    "大": 1085,
    "夫": 1086,
    "头": 1087,
    "奏": 1088,
    "女": 1089,
    "她": 1090,
    "好": 1091,
    "始": 1092,
    "孃": 1093,
    "子": 1094,
    "字": 1095,
    "学": 1096,
    "孩": 1097,
    "它": 1098,
    "完": 1099,
    "定": 1100,
    "宜": 1101,
    "家": 1102,
    "寫": 1103,
    "小": 1104,
    "就": 1105,
    "局": 1106,
    "居": 1107,
    "崩": 1108,
    "巢": 1109,
    "工": 1110,
    "巨": 1111,
    "已": 1112,
    "巷": 1113,
    "市": 1114,
    "希": 1115,
    "師": 1116,
    "帰": 1117,
    "常": 1118,
    "幻": 1119,
    "府": 1120,
    "度": 1121,
    "廊": 1122,
    "开": 1123,
    "弾": 1124,
    "当": 1125,
    "彰": 1126,
    "彼": 1127,
    "征": 1128,
    "得": 1129,
    "忘": 1130,
    "忙": 1131,
    "快": 1132,
    "态": 1133,
    "怎": 1134,
    "思": 1135,
    "恋": 1136,
    "情": 1137,
    "想": 1138,
    "感": 1139,
    "慣": 1140,
    "懂": 1141,
    "成": 1142,
    "我": 1143,
    "所": 1144,
    "手": 1145,
    "才": 1146,
    "技": 1147,
    "把": 1148,
    "抓": 1149,
    "披": 1150,
    "拳": 1151,
    "持": 1152,
    "捡": 1153,
    "描": 1154,
    "放": 1155,
    "政": 1156,
    "文": 1157,
    "料": 1158,
    "方": 1159,
    "无": 1160,
    "日": 1161,
    "时": 1162,
    "明": 1163,
    "昔": 1164,
    "春": 1165,
    "昨": 1166,
    "是": 1167,
    "時": 1168,
    "最": 1169,
    "會": 1170,
    "月": 1171,
    "有": 1172,
    "服": 1173,
    "望": 1174,
    "期": 1175,
    "本": 1176,
    "机": 1177,
    "来": 1178,
    "東": 1179,
    "板": 1180,
    "林": 1181,
    "果": 1182,
    "查": 1183,
    "校": 1184,
    "样": 1185,
    "桌": 1186,
    "様": 1187,
    "樂": 1188,
    "次": 1189,
    "欣": 1190,
    "款": 1191,
    "歡": 1192,
    "正": 1193,
    "死": 1194,
    "母": 1195,
    "每": 1196,
    "气": 1197,
    "気": 1198,
    "没": 1199,
    "沼": 1200,
    "浪": 1201,
    "深": 1202,
    "混": 1203,
    "準": 1204,
    "满": 1205,
    "漂": 1206,
    "演": 1207,
    "火": 1208,
    "点": 1209,
    "為": 1210,
    "照": 1211,
    "爱": 1212,
    "父": 1213,
    "物": 1214,
    "特": 1215,
    "玉": 1216,
    "王": 1217,
    "现": 1218,
    "理": 1219,
    "生": 1220,
    "用": 1221,
    "田": 1222,
    "画": 1223,
    "疗": 1224,
    "疲": 1225,
    "白": 1226,
    "百": 1227,
    "的": 1228,
    "皆": 1229,
    "盛": 1230,
    "看": 1231,
    "真": 1232,
    "砂": 1233,
    "社": 1234,
    "神": 1235,
    "私": 1236,
    "空": 1237,
    "穿": 1238,
    "笑": 1239,
    "米": 1240,
    "粮": 1241,
    "糕": 1242,
    "結": 1243,
    "給": 1244,
    "絵": 1245,
    "継": 1246,
    "綺": 1247,
    "繪": 1248,
    "细": 1249,
    "经": 1250,
    "结": 1251,
    "给": 1252,
    "美": 1253,
    "習": 1254,
    "翼": 1255,
    "老": 1256,
    "者": 1257,
    "而": 1258,
    "肉": 1259,
    "能": 1260,
    "自": 1261,
    "舞": 1262,
    "花": 1263,
    "草": 1264,
    "菜": 1265,
    "葉": 1266,
    "著": 1267,
    "薄": 1268,
    "號": 1269,
    "蚊": 1270,
    "蛋": 1271,
    "行": 1272,
    "衣": 1273,
    "表": 1274,
    "要": 1275,
    "見": 1276,
    "言": 1277,
    "該": 1278,
    "誰": 1279,
    "让": 1280,
    "话": 1281,
    "说": 1282,
    "调": 1283,
    "象": 1284,
    "負": 1285,
    "败": 1286,
    "费": 1287,
    "赏": 1288,
    "走": 1289,
    "趁": 1290,
    "超": 1291,
    "路": 1292,
    "过": 1293,
    "这": 1294,
    "送": 1295,
    "通": 1296,
    "逸": 1297,
    "運": 1298,
    "道": 1299,
    "達": 1300,
    "違": 1301,
    "那": 1302,
    "部": 1303,
    "都": 1304,
    "酔": 1305,
    "鉄": 1306,
    "钱": 1307,
    "長": 1308,
    "长": 1309,
    "門": 1310,
    "閃": 1311,
    "間": 1312,
    "関": 1313,
    "闭": 1314,
    "问": 1315,
    "间": 1316,
    "降": 1317,
    "险": 1318,
    "集": 1319,
    "雲": 1320,
    "電": 1321,
    "顔": 1322,
    "願": 1323,
    "顿": 1324,
    "飘": 1325,
    "飛": 1326,
    "飞": 1327,
    "食": 1328,
    "飲": 1329,
    "饿": 1330,
    "首": 1331,
    "馬": 1332,
    "验": 1333,
    "骨": 1334,
    "高": 1335,
    "魈": 1336,
    "魚": 1337,
    "鹿": 1338,
    "麗": 1339,
    "點": 1340,
    "꒰": 1341,
    "꒱": 1342,
    "ꜝ": 1343,
    "가": 1344,
    "갈": 1345,
    "고": 1346,
    "공": 1347,
    "과": 1348,
    "교": 1349,
    "국": 1350,
    "그": 1351,
    "글": 1352,
    "급": 1353,
    "기": 1354,
    "김": 1355,
    "끈": 1356,
    "나": 1357,
    "남": 1358,
    "냈": 1359,
    "너": 1360,
    "녕": 1361,
    "님": 1362,
    "다": 1363,
    "도": 1364,
    "돼": 1365,
    "되": 1366,
    "두": 1367,
    "드": 1368,
    "랐": 1369,
    "랑": 1370,
    "레": 1371,
    "를": 1372,
    "리": 1373,
    "림": 1374,
    "마": 1375,
    "먹": 1376,
    "멘": 1377,
    "몰": 1378,
    "미": 1379,
    "밥": 1380,
    "보": 1381,
    "부": 1382,
    "불": 1383,
    "비": 1384,
    "빛": 1385,
    "세": 1386,
    "수": 1387,
    "스": 1388,
    "신": 1389,
    "싶": 1390,
    "씨": 1391,
    "아": 1392,
    "악": 1393,
    "안": 1394,
    "야": 1395,
    "얘": 1396,
    "어": 1397,
    "엄": 1398,
    "었": 1399,
    "에": 1400,
    "엠": 1401,
    "와": 1402,
    "요": 1403,
    "울": 1404,
    "원": 1405,
    "윤": 1406,
    "으": 1407,
    "을": 1408,
    "음": 1409,
    "의": 1410,
    "이": 1411,
    "인": 1412,
    "읽": 1413,
    "있": 1414,
    "자": 1415,
    "작": 1416,
    "잘": 1417,
    "저": 1418,
    "제": 1419,
    "중": 1420,
    "즈": 1421,
    "지": 1422,
    "차": 1423,
    "책": 1424,
    "천": 1425,
    "쳐": 1426,
    "초": 1427,
    "촌": 1428,
    "치": 1429,
    "캐": 1430,
    "타": 1431,
    "터": 1432,
    "트": 1433,
    "팩": 1434,
    "하": 1435,
    "학": 1436,
    "한": 1437,
    "해": 1438,
    "햇": 1439,
    "했": 1440,
    "화": 1441,
    "훤": 1442,
    "희": 1443,
    "": 1444,
    "": 1445,
    "ﬀ": 1446,
    "ﬁ": 1447,
    "ﬃ": 1448,
    "︎": 1449,
    "️": 1450,
    "﹒": 1451,
    "﹫": 1452,
    "﻿": 1453,
    "！": 1454,
    "（": 1455,
    "）": 1456,
    "，": 1457,
    "－": 1458,
    "．": 1459,
    "／": 1460,
    "３": 1461,
    "：": 1462,
    "？": 1463,
    "＼": 1464,
    "＿": 1465,
    "｀": 1466,
    "ｄ": 1467,
    "ｇ": 1468,
    "ｈ": 1469,
    "ｉ": 1470,
    "ｎ": 1471,
    "ｏ": 1472,
    "ｔ": 1473,
    "｜": 1474,
    "～": 1475,
    "｡": 1476,
    "｢": 1477,
    "｣": 1478,
    "･": 1479,
    "ﾉ": 1480,
    "ﾟ": 1481,
    "￣": 1482,
    "￼": 1483,
    "�": 1484,
    "𐐪": 1485,
    "𓃵": 1486,
    "𖠁": 1487,
    "𝐀": 1488,
    "𝐁": 1489,
    "𝐄": 1490,
    "𝐅": 1491,
    "𝐆": 1492,
    "𝐊": 1493,
    "𝐋": 1494,
    "𝐍": 1495,
    "𝐎": 1496,
    "𝐑": 1497,
    "𝐒": 1498,
    "𝐓": 1499,
    "𝐖": 1500,
    "𝐚": 1501,
    "𝐝": 1502,
    "𝐞": 1503,
    "𝐡": 1504,
    "𝐢": 1505,
    "𝐥": 1506,
    "𝐧": 1507,
    "𝐫": 1508,
    "𝐬": 1509,
    "𝐭": 1510,
    "𝐲": 1511,
    "𝐳": 1512,
    "𝑒": 1513,
    "𝑨": 1514,
    "𝑳": 1515,
    "𝒂": 1516,
    "𝒄": 1517,
    "𝒅": 1518,
    "𝒆": 1519,
    "𝒇": 1520,
    "𝒊": 1521,
    "𝒌": 1522,
    "𝒍": 1523,
    "𝒏": 1524,
    "𝒐": 1525,
    "𝒓": 1526,
    "𝒔": 1527,
    "𝒖": 1528,
    "𝒘": 1529,
    "𝒙": 1530,
    "𝒚": 1531,
    "𝒶": 1532,
    "𝓁": 1533,
    "𝓅": 1534,
    "𝓈": 1535,
    "𝓜": 1536,
    "𝕊": 1537,
    "𝕏": 1538,
    "𝕓": 1539,
    "𝕔": 1540,
    "𝕕": 1541,
    "𝕖": 1542,
    "𝕙": 1543,
    "𝕝": 1544,
    "𝕞": 1545,
    "𝕠": 1546,
    "𝕡": 1547,
    "𝕣": 1548,
    "𝕤": 1549,
    "𝕥": 1550,
    "𝕦": 1551,
    "𝕧": 1552,
    "𝖥": 1553,
    "𝖺": 1554,
    "𝖽": 1555,
    "𝗂": 1556,
    "𝗋": 1557,
    "𝗌": 1558,
    "𝗍": 1559,
    "𝗐": 1560,
    "𝗡": 1561,
    "𝗢": 1562,
    "𝗣": 1563,
    "𝗮": 1564,
    "𝗰": 1565,
    "𝗱": 1566,
    "𝗲": 1567,
    "𝗴": 1568,
    "𝗶": 1569,
    "𝗸": 1570,
    "𝗹": 1571,
    "𝗻": 1572,
    "𝗼": 1573,
    "𝗿": 1574,
    "𝘀": 1575,
    "𝘂": 1576,
    "𝘄": 1577,
    "𝘆": 1578,
    "𝘏": 1579,
    "𝘖": 1580,
    "𝘚": 1581,
    "𝘞": 1582,
    "𝘢": 1583,
    "𝘥": 1584,
    "𝘦": 1585,
    "𝘧": 1586,
    "𝘬": 1587,
    "𝘮": 1588,
    "𝘰": 1589,
    "𝘳": 1590,
    "𝘵": 1591,
    "𝘺": 1592,
    "𝘽": 1593,
    "𝙃": 1594,
    "𝙊": 1595,
    "𝙋": 1596,
    "𝙎": 1597,
    "𝙏": 1598,
    "𝙐": 1599,
    "𝙒": 1600,
    "𝙖": 1601,
    "𝙘": 1602,
    "𝙙": 1603,
    "𝙚": 1604,
    "𝙞": 1605,
    "𝙠": 1606,
    "𝙣": 1607,
    "𝙤": 1608,
    "𝙥": 1609,
    "𝙧": 1610,
    "𝙨": 1611,
    "𝙩": 1612,
    "𝙪": 1613,
    "𝙫": 1614,
    "𝙬": 1615,
    "𝙮": 1616,
    "🌃": 1617,
    "🌞": 1618,
    "🌺": 1619,
    "🌻": 1620,
    "🍃": 1621,
    "🍆": 1622,
    "🎂": 1623,
    "🎃": 1624,
    "🎉": 1625,
    "🎓": 1626,
    "🎤": 1627,
    "🎶": 1628,
    "🏡": 1629,
    "🏻": 1630,
    "🏼": 1631,
    "🏽": 1632,
    "🏾": 1633,
    "🐍": 1634,
    "🐠": 1635,
    "🐩": 1636,
    "🐶": 1637,
    "🐾": 1638,
    "👀": 1639,
    "👁": 1640,
    "👃": 1641,
    "👄": 1642,
    "👅": 1643,
    "👋": 1644,
    "👌": 1645,
    "👍": 1646,
    "👎": 1647,
    "👏": 1648,
    "👦": 1649,
    "👧": 1650,
    "👫": 1651,
    "👬": 1652,
    "👭": 1653,
    "👻": 1654,
    "👾": 1655,
    "💀": 1656,
    "💁": 1657,
    "💋": 1658,
    "💎": 1659,
    "💓": 1660,
    "💔": 1661,
    "💕": 1662,
    "💖": 1663,
    "💗": 1664,
    "💙": 1665,
    "💚": 1666,
    "💛": 1667,
    "💜": 1668,
    "💞": 1669,
    "💟": 1670,
    "💦": 1671,
    "💩": 1672,
    "💪": 1673,
    "💫": 1674,
    "💭": 1675,
    "📱": 1676,
    "📷": 1677,
    "🔑": 1678,
    "🔥": 1679,
    "🔪": 1680,
    "🔫": 1681,
    "🔮": 1682,
    "🖖": 1683,
    "🖤": 1684,
    "🗑": 1685,
    "🗣": 1686,
    "😀": 1687,
    "😁": 1688,
    "😂": 1689,
    "😃": 1690,
    "😄": 1691,
    "😅": 1692,
    "😆": 1693,
    "😇": 1694,
    "😈": 1695,
    "😉": 1696,
    "😊": 1697,
    "😌": 1698,
    "😍": 1699,
    "😎": 1700,
    "😏": 1701,
    "😐": 1702,
    "😑": 1703,
    "😒": 1704,
    "😓": 1705,
    "😔": 1706,
    "😕": 1707,
    "😖": 1708,
    "😗": 1709,
    "😘": 1710,
    "😚": 1711,
    "😞": 1712,
    "😟": 1713,
    "😡": 1714,
    "😢": 1715,
    "😣": 1716,
    "😤": 1717,
    "😥": 1718,
    "😦": 1719,
    "😩": 1720,
    "😪": 1721,
    "😫": 1722,
    "😬": 1723,
    "😭": 1724,
    "😯": 1725,
    "😲": 1726,
    "😳": 1727,
    "😴": 1728,
    "😶": 1729,
    "😷": 1730,
    "😹": 1731,
    "🙂": 1732,
    "🙃": 1733,
    "🙄": 1734,
    "🙈": 1735,
    "🙉": 1736,
    "🙊": 1737,
    "🙋": 1738,
    "🙌": 1739,
    "🙏": 1740,
    "🚀": 1741,
    "🚨": 1742,
    "🚩": 1743,
    "🚮": 1744,
    "🚽": 1745,
    "🛑": 1746,
    "🤍": 1747,
    "🤔": 1748,
    "🤗": 1749,
    "🤘": 1750,
    "🤙": 1751,
    "🤚": 1752,
    "🤞": 1753,
    "🤠": 1754,
    "🤡": 1755,
    "🤢": 1756,
    "🤣": 1757,
    "🤦": 1758,
    "🤨": 1759,
    "🤩": 1760,
    "🤪": 1761,
    "🤬": 1762,
    "🤮": 1763,
    "🤯": 1764,
    "🤲": 1765,
    "🤷": 1766,
    "🤹": 1767,
    "🥰": 1768,
    "🥲": 1769,
    "🥳": 1770,
    "🥴": 1771,
    "🥵": 1772,
    "🥺": 1773,
    "🦈": 1774,
    "🦍": 1775,
    "🦎": 1776,
    "🦽": 1777,
    "🫂": 1778,
    "e</w>": 1779,
    "t</w>": 1780,
    "th": 1781,
    "s</w>": 1782,
    "d</w>": 1783,
    "in": 1784,
    "an": 1785,
    "y</w>": 1786,
    "er": 1787,
    "o</w>": 1788,
    ".</w>": 1789,
    "on": 1790,
    "ou": 1791,
    "ing": 1792,
    "en": 1793,
    "or": 1794,
    ",</w>": 1795,
    "ing</w>": 1796,
    "to</w>": 1797,
    "the</w>": 1798,
    "a</w>": 1799,
    "al": 1800,
    "re": 1801,
    "I</w>": 1802,
    "and</w>": 1803,
    "ar": 1804,
    "f</w>": 1805,
    "er</w>": 1806,
    "ha": 1807,
    "ed</w>": 1808,
    "st": 1809,
    "om": 1810,
    "is</w>": 1811,
    "it": 1812,
    "l</w>": 1813,
    "or</w>": 1814,
    "at": 1815,
    "at</w>": 1816,
    ":</w>": 1817,
    "ow": 1818,
    "ve</w>": 1819,
    "of</w>": 1820,
    "m</w>": 1821,
    "ly</w>": 1822,
    "us": 1823,
    "in</w>": 1824,
    "my</w>": 1825,
    "on</w>": 1826,
    "sh": 1827,
    "le": 1828,
    "ic": 1829,
    "you": 1830,
    "be": 1831,
    "wa": 1832,
    "en</w>": 1833,
    "it</w>": 1834,
    "OP": 1835,
    "k</w>": 1836,
    "wi": 1837,
    "li": 1838,
    "OP:</w>": 1839,
    "ac": 1840,
    "me</w>": 1841,
    "se": 1842,
    "for</w>": 1843,
    "that</w>": 1844,
    "i</w>": 1845,
    "wh": 1846,
    "ri": 1847,
    "es": 1848,
    "ch": 1849,
    "ti": 1850,
    "as": 1851,
    "th</w>": 1852,
    "an</w>": 1853,
    "bu": 1854,
    "es</w>": 1855,
    "?</w>": 1856,
    "le</w>": 1857,
    "gh": 1858,
    "ld</w>": 1859,
    "el": 1860,
    "oo": 1861,
    "ab": 1862,
    "p</w>": 1863,
    "out</w>": 1864,
    "ow</w>": 1865,
    "ot</w>": 1866,
    "the": 1867,
    "ev": 1868,
    "you</w>": 1869,
    "ke</w>": 1870,
    "ro": 1871,
    "with</w>": 1872,
    "ed": 1873,
    "was</w>": 1874,
    "have</w>": 1875,
    "'t</w>": 1876,
    "id": 1877,
    "but</w>": 1878,
    "r</w>": 1879,
    "ge": 1880,
    "be</w>": 1881,
    "he</w>": 1882,
    "is": 1883,
    "ad": 1884,
    "un": 1885,
    "I'": 1886,
    "one</w>": 1887,
    "ould</w>": 1888,
    "this</w>": 1889,
    "ent": 1890,
    "'s</w>": 1891,
    "so</w>": 1892,
    "me": 1893,
    "su": 1894,
    "il": 1895,
    "som": 1896,
    "ere</w>": 1897,
    "ma": 1898,
    "ne": 1899,
    "op": 1900,
    "ust</w>": 1901,
    "fe": 1902,
    "ally</w>": 1903,
    "os": 1904,
    "sa": 1905,
    "al</w>": 1906,
    "com": 1907,
    "not</w>": 1908,
    "pl": 1909,
    "ir": 1910,
    "are</w>": 1911,
    "pe": 1912,
    "ca": 1913,
    "just</w>": 1914,
    "de": 1915,
    "king</w>": 1916,
    "da": 1917,
    "ov": 1918,
    "hat</w>": 1919,
    "s.</w>": 1920,
    "as</w>": 1921,
    "to": 1922,
    "ur": 1923,
    "ex": 1924,
    "all</w>": 1925,
    "om</w>": 1926,
    "tr": 1927,
    "she</w>": 1928,
    "about</w>": 1929,
    "like</w>": 1930,
    "ag": 1931,
    "wor": 1932,
    "ati": 1933,
    "her</w>": 1934,
    "ther</w>": 1935,
    "con": 1936,
    "ol": 1937,
    "am": 1938,
    "ent</w>": 1939,
    "e.</w>": 1940,
    "ear": 1941,
    "ll</w>": 1942,
    "tt": 1943,
    "if</w>": 1944,
    "..": 1945,
    "now</w>": 1946,
    "si": 1947,
    "do": 1948,
    "I'm</w>": 1949,
    "hi": 1950,
    "fr": 1951,
    "s,</w>": 1952,
    "pp": 1953,
    "oun": 1954,
    "di": 1955,
    "wan": 1956,
    "ght</w>": 1957,
    "n</w>": 1958,
    "don": 1959,
    ")</w>": 1960,
    "thing</w>": 1961,
    "for": 1962,
    "do</w>": 1963,
    "use</w>": 1964,
    "we": 1965,
    "get</w>": 1966,
    "end": 1967,
    "w</w>": 1968,
    "fri": 1969,
    "up</w>": 1970,
    "ta": 1971,
    "we</w>": 1972,
    "pro": 1973,
    "ce</w>": 1974,
    "would</w>": 1975,
    "g</w>": 1976,
    "y,</w>": 1977,
    "they</w>": 1978,
    "ts</w>": 1979,
    "ch</w>": 1980,
    "y.</w>": 1981,
    "some": 1982,
    "what</w>": 1983,
    "Th": 1984,
    "lo": 1985,
    "from</w>": 1986,
    "mor": 1987,
    "n't</w>": 1988,
    "ter": 1989,
    "your</w>": 1990,
    "ver": 1991,
    "st</w>": 1992,
    "am</w>": 1993,
    "any": 1994,
    "e,</w>": 1995,
    "per": 1996,
    "go": 1997,
    "gu": 1998,
    "h</w>": 1999,
    "can</w>": 2000,
    "qu": 2001,
    "when</w>": 2002,
    "!</w>": 2003,
    "cause</w>": 2004,
    "bo": 2005,
    "par": 2006,
    "had</w>": 2007,
    "some</w>": 2008,
    "know</w>": 2009,
    "end</w>": 2010,
    "gr": 2011,
    "ys</w>": 2012,
    "any</w>": 2013,
    "ever": 2014,
    "ted</w>": 2015,
    "all": 2016,
    "of": 2017,
    "ough": 2018,
    "em": 2019,
    "pre": 2020,
    "been</w>": 2021,
    "thin": 2022,
    "re</w>": 2023,
    "other</w>": 2024,
    "fu": 2025,
    "ever</w>": 2026,
    "because</w>": 2027,
    "ter</w>": 2028,
    "ther": 2029,
    "*</w>": 2030,
    "\"</w>": 2031,
    "ying</w>": 2032,
    "don't</w>": 2033,
    "fin": 2034,
    "’t</w>": 2035,
    "ra": 2036,
    "t.</w>": 2037,
    "want</w>": 2038,
    "est": 2039,
    "id</w>": 2040,
    "he": 2041,
    "ks</w>": 2042,
    "po": 2043,
    "how</w>": 2044,
    "ad</w>": 2045,
    "ment": 2046,
    "el</w>": 2047,
    "year": 2048,
    "peop": 2049,
    "really</w>": 2050,
    "has</w>": 2051,
    "se</w>": 2052,
    "ke": 2053,
    "and": 2054,
    "ost</w>": 2055,
    "ked</w>": 2056,
    "gi": 2057,
    "ci": 2058,
    "ate</w>": 2059,
    "thing": 2060,
    "mu": 2061,
    "time</w>": 2062,
    "bac": 2063,
    "ation": 2064,
    "will</w>": 2065,
    "his</w>": 2066,
    "-</w>": 2067,
    "him</w>": 2068,
    "sel": 2069,
    "The</w>": 2070,
    "mon": 2071,
    "more</w>": 2072,
    "no": 2073,
    "ood</w>": 2074,
    "ar</w>": 2075,
    "sp": 2076,
    "...</w>": 2077,
    "pu": 2078,
    "pa": 2079,
    "ast</w>": 2080,
    "cl": 2081,
    "te": 2082,
    "pla": 2083,
    "day</w>": 2084,
    "people</w>": 2085,
    "An": 2086,
    "hel": 2087,
    "friend": 2088,
    "no</w>": 2089,
    "there</w>": 2090,
    "0</w>": 2091,
    "ir</w>": 2092,
    "up": 2093,
    "who</w>": 2094,
    "loo": 2095,
    "’s</w>": 2096,
    "can": 2097,
    "t,</w>": 2098,
    "af": 2099,
    "ound</w>": 2100,
    "mo": 2101,
    "ough</w>": 2102,
    "ting</w>": 2103,
    "fi": 2104,
    "star": 2105,
    "own</w>": 2106,
    "]</w>": 2107,
    "think</w>": 2108,
    "ic</w>": 2109,
    "our</w>": 2110,
    "by</w>": 2111,
    "ge</w>": 2112,
    "feel</w>": 2113,
    "way</w>": 2114,
    "got</w>": 2115,
    "ving</w>": 2116,
    "them</w>": 2117,
    "go</w>": 2118,
    "her": 2119,
    "ill</w>": 2120,
    "it.</w>": 2121,
    "mov": 2122,
    "min": 2123,
    "I've</w>": 2124,
    "going</w>": 2125,
    "even</w>": 2126,
    "ob": 2127,
    "der": 2128,
    "ell</w>": 2129,
    "it's</w>": 2130,
    "ap": 2131,
    "so": 2132,
    "ation</w>": 2133,
    "ell": 2134,
    "fa": 2135,
    "now": 2136,
    "ice</w>": 2137,
    "me.</w>": 2138,
    "ion": 2139,
    "only</w>": 2140,
    "did": 2141,
    "being</w>": 2142,
    "wee": 2143,
    "--": 2144,
    "cou": 2145,
    "tu": 2146,
    "make</w>": 2147,
    "im": 2148,
    "able</w>": 2149,
    "were</w>": 2150,
    "dit": 2151,
    "could</w>": 2152,
    "vi": 2153,
    "ight</w>": 2154,
    "ga": 2155,
    "tion": 2156,
    "ong</w>": 2157,
    "their</w>": 2158,
    "friend</w>": 2159,
    "la": 2160,
    "back</w>": 2161,
    "fir": 2162,
    "good</w>": 2163,
    "ep": 2164,
    "every": 2165,
    "ed]</w>": 2166,
    "rec": 2167,
    "My</w>": 2168,
    "tal": 2169,
    "ul": 2170,
    "over</w>": 2171,
    "um": 2172,
    "into</w>": 2173,
    "then</w>": 2174,
    "should</w>": 2175,
    "that": 2176,
    "tting</w>": 2177,
    "sid": 2178,
    "ich</w>": 2179,
    "ers</w>": 2180,
    "hat": 2181,
    "happ": 2182,
    "much</w>": 2183,
    "ld": 2184,
    "very</w>": 2185,
    "ff": 2186,
    "cre": 2187,
    "ity</w>": 2188,
    "’m</w>": 2189,
    "**": 2190,
    "see</w>": 2191,
    "ite</w>": 2192,
    "et": 2193,
    "never</w>": 2194,
    "ing.</w>": 2195,
    "new</w>": 2196,
    "ard</w>": 2197,
    "ple": 2198,
    "What</w>": 2199,
    "ss</w>": 2200,
    "2</w>": 2201,
    "where</w>": 2202,
    "ed.</w>": 2203,
    "ose</w>": 2204,
    "after</w>": 2205,
    "gre": 2206,
    "need</w>": 2207,
    "Com": 2208,
    "something</w>": 2209,
    "still</w>": 2210,
    "ph": 2211,
    "Wh": 2212,
    "ard": 2213,
    "hou": 2214,
    "tw": 2215,
    "es.</w>": 2216,
    "inter": 2217,
    "which</w>": 2218,
    "ide": 2219,
    "ey</w>": 2220,
    "uc": 2221,
    "work</w>": 2222,
    "ec": 2223,
    "app": 2224,
    "prob": 2225,
    "red": 2226,
    "most</w>": 2227,
    "str": 2228,
    "than</w>": 2229,
    "i'": 2230,
    "gir": 2231,
    ").</w>": 2232,
    "said</w>": 2233,
    "itt": 2234,
    "fe</w>": 2235,
    "dr": 2236,
    "dis": 2237,
    "tion</w>": 2238,
    "bl": 2239,
    "bi": 2240,
    "tur": 2241,
    "ud": 2242,
    "es,</w>": 2243,
    "x</w>": 2244,
    "A</w>": 2245,
    "also</w>": 2246,
    "est</w>": 2247,
    "self</w>": 2248,
    "shi": 2249,
    "told</w>": 2250,
    "e's</w>": 2251,
    "thr": 2252,
    "read": 2253,
    "us</w>": 2254,
    "sh</w>": 2255,
    "red</w>": 2256,
    "spe": 2257,
    "sin": 2258,
    "br": 2259,
    "tri": 2260,
    "first</w>": 2261,
    ";</w>": 2262,
    "ep</w>": 2263,
    "ought</w>": 2264,
    "ut</w>": 2265,
    "ways</w>": 2266,
    "k.</w>": 2267,
    "ade</w>": 2268,
    "befor": 2269,
    "s?</w>": 2270,
    "Comment": 2271,
    "whi": 2272,
    "ous</w>": 2273,
    "few</w>": 2274,
    "Commenter": 2275,
    "my": 2276,
    "tim": 2277,
    "n’t</w>": 2278,
    "pers": 2279,
    "'re</w>": 2280,
    "off</w>": 2281,
    "00": 2282,
    "aga": 2283,
    "ing,</w>": 2284,
    "lin": 2285,
    "things</w>": 2286,
    "choo": 2287,
    "So</w>": 2288,
    "ated</w>": 2289,
    "hom": 2290,
    "did</w>": 2291,
    "me,</w>": 2292,
    "acc": 2293,
    "It</w>": 2294,
    "come</w>": 2295,
    "ser": 2296,
    "help</w>": 2297,
    "m.</w>": 2298,
    "anyone</w>": 2299,
    "with": 2300,
    "chan": 2301,
    "off": 2302,
    "someone</w>": 2303,
    "ni": 2304,
    "stor": 2305,
    "getting</w>": 2306,
    "take</w>": 2307,
    "ess</w>": 2308,
    "ace</w>": 2309,
    "ning</w>": 2310,
    "rel": 2311,
    "cont": 2312,
    "tic": 2313,
    "this": 2314,
    "fam": 2315,
    "friends</w>": 2316,
    "If</w>": 2317,
    "ase</w>": 2318,
    "ese</w>": 2319,
    "d.</w>": 2320,
    "pos": 2321,
    "av": 2322,
    "say</w>": 2323,
    "over": 2324,
    "ion</w>": 2325,
    "didn't</w>": 2326,
    "always</w>": 2327,
    "dec": 2328,
    "sit": 2329,
    "can't</w>": 2330,
    "3</w>": 2331,
    "since</w>": 2332,
    "ely</w>": 2333,
    "does": 2334,
    "5</w>": 2335,
    "ily</w>": 2336,
    "won": 2337,
    "while</w>": 2338,
    "ment</w>": 2339,
    "around</w>": 2340,
    "love</w>": 2341,
    "iz": 2342,
    "find</w>": 2343,
    "kin": 2344,
    "right</w>": 2345,
    "pr": 2346,
    "own": 2347,
    "years</w>": 2348,
    "hear": 2349,
    "wr": 2350,
    "co": 2351,
    "I’m</w>": 2352,
    "ds</w>": 2353,
    "remov": 2354,
    "ll": 2355,
    "et</w>": 2356,
    "job": 2357,
    "last</w>": 2358,
    "This</w>": 2359,
    "pic": 2360,
    "schoo": 2361,
    "age</w>": 2362,
    "mar": 2363,
    "before</w>": 2364,
    "sta": 2365,
    "litt": 2366,
    "por": 2367,
    "ents</w>": 2368,
    "two</w>": 2369,
    "ut": 2370,
    "too</w>": 2371,
    "ong": 2372,
    "ant</w>": 2373,
    "er.</w>": 2374,
    "ating</w>": 2375,
    "ble</w>": 2376,
    "kes</w>": 2377,
    "k,</w>": 2378,
    "sed</w>": 2379,
    "ook</w>": 2380,
    "ently</w>": 2381,
    "col": 2382,
    "made</w>": 2383,
    "wat": 2384,
    "feel": 2385,
    "ed,</w>": 2386,
    "enc": 2387,
    "der</w>": 2388,
    "ig": 2389,
    "let": 2390,
    "na": 2391,
    "Red": 2392,
    "tty</w>": 2393,
    "**</w>": 2394,
    "quest": 2395,
    "jo": 2396,
    "e?</w>": 2397,
    "bro": 2398,
    "sure</w>": 2399,
    "rea": 2400,
    "why</w>": 2401,
    "[remov": 2402,
    "little</w>": 2403,
    "old</w>": 2404,
    "[removed]</w>": 2405,
    "ill": 2406,
    "man": 2407,
    "lot</w>": 2408,
    "it,</w>": 2409,
    "poin": 2410,
    "cr": 2411,
    "don’t</w>": 2412,
    "diff": 2413,
    "down</w>": 2414,
    "tell</w>": 2415,
    "know": 2416,
    "ft</w>": 2417,
    "year</w>": 2418,
    "month": 2419,
    "des": 2420,
    "att": 2421,
    "try</w>": 2422,
    "le.</w>": 2423,
    "ies</w>": 2424,
    "here</w>": 2425,
    "used</w>": 2426,
    "ach</w>": 2427,
    "ence</w>": 2428,
    "doing</w>": 2429,
    "ple</w>": 2430,
    "d,</w>": 2431,
    "comm": 2432,
    "best</w>": 2433,
    "its</w>": 2434,
    "i'm</w>": 2435,
    "every</w>": 2436,
    "fuc": 2437,
    "anything</w>": 2438,
    "pres": 2439,
    "mat": 2440,
    "these</w>": 2441,
    "dit</w>": 2442,
    "pretty</w>": 2443,
    "ree</w>": 2444,
    "Than": 2445,
    "looking</w>": 2446,
    "bett": 2447,
    "girl": 2448,
    "adv": 2449,
    "life</w>": 2450,
    "gg": 2451,
    "having</w>": 2452,
    "ue</w>": 2453,
    "oc": 2454,
    "trying</w>": 2455,
    "...": 2456,
    "give</w>": 2457,
    "We</w>": 2458,
    "ste": 2459,
    "But</w>": 2460,
    "through</w>": 2461,
    "under": 2462,
    "ait": 2463,
    "ole</w>": 2464,
    "It": 2465,
    "myself</w>": 2466,
    "part": 2467,
    "less</w>": 2468,
    "er,</w>": 2469,
    "out": 2470,
    "ding</w>": 2471,
    "same</w>": 2472,
    "fun": 2473,
    "E</w>": 2474,
    "1</w>": 2475,
    "ould": 2476,
    "started</w>": 2477,
    "sor": 2478,
    "ber</w>": 2479,
    "let</w>": 2480,
    "proble": 2481,
    "S</w>": 2482,
    "went</w>": 2483,
    "ant": 2484,
    "thought</w>": 2485,
    "repl": 2486,
    "sm": 2487,
    "lat": 2488,
    "actu": 2489,
    "put</w>": 2490,
    "reas": 2491,
    "happen": 2492,
    "And</w>": 2493,
    "cur": 2494,
    "again": 2495,
    "fac": 2496,
    "dy</w>": 2497,
    "peri": 2498,
    "He</w>": 2499,
    "loc": 2500,
    "mis": 2501,
    "ous": 2502,
    "long</w>": 2503,
    "pri": 2504,
    "You": 2505,
    "stu": 2506,
    "delet": 2507,
    "anc": 2508,
    "sc": 2509,
    "times</w>": 2510,
    "4</w>": 2511,
    "lea": 2512,
    "supp": 2513,
    "enti": 2514,
    "seem": 2515,
    "y:</w>": 2516,
    "ght": 2517,
    "doesn't</w>": 2518,
    "How</w>": 2519,
    "wanted</w>": 2520,
    "sub": 2521,
    "sist": 2522,
    "see": 2523,
    "does</w>": 2524,
    "ot": 2525,
    "ful</w>": 2526,
    "differ": 2527,
    "nex": 2528,
    "cle": 2529,
    "tre": 2530,
    "----": 2531,
    "call": 2532,
    "help": 2533,
    "ei": 2534,
    "bas": 2535,
    "T</w>": 2536,
    "2:</w>": 2537,
    "cu": 2538,
    "ably</w>": 2539,
    "many</w>": 2540,
    "asked</w>": 2541,
    "run": 2542,
    "high": 2543,
    "relation": 2544,
    "ct</w>": 2545,
    "keep</w>": 2546,
    "[delet": 2547,
    "[deleted]</w>": 2548,
    "aw": 2549,
    "ack</w>": 2550,
    "ta</w>": 2551,
    "family</w>": 2552,
    "D</w>": 2553,
    "relationshi": 2554,
    "ry</w>": 2555,
    "dri": 2556,
    "without</w>": 2557,
    "post": 2558,
    "ned</w>": 2559,
    "ybe</w>": 2560,
    "ick</w>": 2561,
    "next</w>": 2562,
    "gam": 2563,
    "need": 2564,
    "it’s</w>": 2565,
    "hop": 2566,
    "se.</w>": 2567,
    "both</w>": 2568,
    "20": 2569,
    "ready</w>": 2570,
    "y?</w>": 2571,
    "ans</w>": 2572,
    "low": 2573,
    "side</w>": 2574,
    "m,</w>": 2575,
    "),</w>": 2576,
    "ass</w>": 2577,
    "til</w>": 2578,
    "Is</w>": 2579,
    "ist": 2580,
    "bad</w>": 2581,
    "another</w>": 2582,
    "other": 2583,
    "ps</w>": 2584,
    "bit</w>": 2585,
    "mem": 2586,
    "underst": 2587,
    "op</w>": 2588,
    "sing</w>": 2589,
    "She</w>": 2590,
    "came</w>": 2591,
    "brea": 2592,
    "etc": 2593,
    "int": 2594,
    "sw": 2595,
    "”</w>": 2596,
    "those</w>": 2597,
    "better</w>": 2598,
    "self": 2599,
    "gen": 2600,
    "o,</w>": 2601,
    "home</w>": 2602,
    "live</w>": 2603,
    "cer": 2604,
    "ves</w>": 2605,
    "else</w>": 2606,
    "med": 2607,
    "les</w>": 2608,
    "though</w>": 2609,
    "aita</w>": 2610,
    "ven": 2611,
    "real": 2612,
    "nor": 2613,
    "on.</w>": 2614,
    "talk</w>": 2615,
    "actually</w>": 2616,
    "ses</w>": 2617,
    "ang": 2618,
    "look</w>": 2619,
    "Al": 2620,
    "mi": 2621,
    "I'd</w>": 2622,
    "using</w>": 2623,
    "ings</w>": 2624,
    "colle": 2625,
    "school</w>": 2626,
    "toge": 2627,
    "car": 2628,
    "ically</w>": 2629,
    "person</w>": 2630,
    "well</w>": 2631,
    "found</w>": 2632,
    "until</w>": 2633,
    "It's</w>": 2634,
    "start</w>": 2635,
    "was": 2636,
    "Ch": 2637,
    "reply:</w>": 2638,
    "ance</w>": 2639,
    "Commenter:</w>": 2640,
    "OP_": 2641,
    "OP_reply:</w>": 2642,
    "Commenter2:</w>": 2643,
    "away</w>": 2644,
    "ine</w>": 2645,
    "decid": 2646,
    "our": 2647,
    "le,</w>": 2648,
    "b</w>": 2649,
    "play": 2650,
    "ask</w>": 2651,
    "might</w>": 2652,
    "experi": 2653,
    "body</w>": 2654,
    "mom</w>": 2655,
    "beli": 2656,
    "set</w>": 2657,
    "what": 2658,
    "ach": 2659,
    "sy": 2660,
    "play</w>": 2661,
    "cra": 2662,
    "kid": 2663,
    "days</w>": 2664,
    "issu": 2665,
    "’ve</w>": 2666,
    "job</w>": 2667,
    "life": 2668,
    "money</w>": 2669,
    "ef": 2670,
    "I'll</w>": 2671,
    "comp": 2672,
    "sim": 2673,
    "coun": 2674,
    "ions</w>": 2675,
    "wal": 2676,
    "ct": 2677,
    "Any": 2678,
    "inv": 2679,
    "You</w>": 2680,
    "interest": 2681,
    "sur": 2682,
    "ical</w>": 2683,
    "each</w>": 2684,
    "parents</w>": 2685,
    "ful": 2686,
    "kind</w>": 2687,
    "guy</w>": 2688,
    "sol": 2689,
    "down": 2690,
    "hand": 2691,
    "spon": 2692,
    "tried</w>": 2693,
    "Reddit": 2694,
    "making</w>": 2695,
    "comple": 2696,
    "seems</w>": 2697,
    "ved</w>": 2698,
    "probably</w>": 2699,
    "ually</w>": 2700,
    "boo": 2701,
    "game</w>": 2702,
    "na</w>": 2703,
    "ba": 2704,
    "they": 2705,
    "Any</w>": 2706,
    "everyone</w>": 2707,
    "hour": 2708,
    "everything</w>": 2709,
    "wom": 2710,
    "sion</w>": 2711,
    "hard</w>": 2712,
    "se,</w>": 2713,
    "ru": 2714,
    "read</w>": 2715,
    "tell": 2716,
    "exc": 2717,
    "che": 2718,
    "10": 2719,
    "fol": 2720,
    "you're</w>": 2721,
    "point</w>": 2722,
    "ure</w>": 2723,
    "months</w>": 2724,
    "respon": 2725,
    "he's</w>": 2726,
    "possi": 2727,
    "il</w>": 2728,
    "maybe</w>": 2729,
    "'</w>": 2730,
    "In": 2731,
    "though": 2732,
    "post</w>": 2733,
    "tely</w>": 2734,
    "done</w>": 2735,
    "place</w>": 2736,
    ".\"</w>": 2737,
    "per</w>": 2738,
    "i’m</w>": 2739,
    "girl</w>": 2740,
    "form": 2741,
    "thing.</w>": 2742,
    "cour": 2743,
    "6</w>": 2744,
    "reddit": 2745,
    "enough</w>": 2746,
    "that's</w>": 2747,
    "cor": 2748,
    "guys</w>": 2749,
    "makes</w>": 2750,
    "fl": 2751,
    "tra": 2752,
    "room": 2753,
    "great</w>": 2754,
    "ess": 2755,
    "sle": 2756,
    "already</w>": 2757,
    "lov": 2758,
    "part</w>": 2759,
    "call</w>": 2760,
    "day.</w>": 2761,
    "man</w>": 2762,
    "night</w>": 2763,
    "left</w>": 2764,
    "saying</w>": 2765,
    "work": 2766,
    "ort</w>": 2767,
    "thinking</w>": 2768,
    "fel": 2769,
    "ind": 2770,
    "ick": 2771,
    "mer": 2772,
    "ty": 2773,
    "week</w>": 2774,
    "on,</w>": 2775,
    "'ve</w>": 2776,
    "ref": 2777,
    "plan": 2778,
    "care</w>": 2779,
    "ary</w>": 2780,
    "well": 2781,
    "house</w>": 2782,
    "au": 2783,
    "week": 2784,
    "gest": 2785,
    "igh": 2786,
    "talking</w>": 2787,
    "de</w>": 2788,
    "act</w>": 2789,
    "so,</w>": 2790,
    "would": 2791,
    "ve": 2792,
    "one.</w>": 2793,
    "curr": 2794,
    "nothing</w>": 2795,
    "mus": 2796,
    "nta": 2797,
    "DI": 2798,
    "olo": 2799,
    "r/": 2800,
    "ff</w>": 2801,
    "pe</w>": 2802,
    "eas": 2803,
    "soci": 2804,
    "pay</w>": 2805,
    "shit</w>": 2806,
    "day": 2807,
    "out.</w>": 2808,
    "working</w>": 2809,
    "stre": 2810,
    "dre": 2811,
    "vis": 2812,
    "couple</w>": 2813,
    "room</w>": 2814,
    "jec": 2815,
    "big</w>": 2816,
    "sug": 2817,
    "tex": 2818,
    "different</w>": 2819,
    "ho": 2820,
    "may</w>": 2821,
    "When</w>": 2822,
    "boy": 2823,
    "ly,</w>": 2824,
    "list": 2825,
    "ons</w>": 2826,
    "ari": 2827,
    "coo": 2828,
    "mom": 2829,
    "sk": 2830,
    "reci": 2831,
    "felt</w>": 2832,
    "stop</w>": 2833,
    "..</w>": 2834,
    "hate</w>": 2835,
    "sen": 2836,
    "char": 2837,
    "cha": 2838,
    "ors</w>": 2839,
    "pol": 2840,
    "her.</w>": 2841,
    "show": 2842,
    "lear": 2843,
    "ching</w>": 2844,
    "assh": 2845,
    "too": 2846,
    "says</w>": 2847,
    "than": 2848,
    "ms</w>": 2849,
    "could": 2850,
    "move</w>": 2851,
    "stud": 2852,
    "They</w>": 2853,
    "In</w>": 2854,
    "hur": 2855,
    "gin": 2856,
    "sha": 2857,
    "Ne": 2858,
    "minut": 2859,
    "vers": 2860,
    "whole</w>": 2861,
    "dad</w>": 2862,
    "day,</w>": 2863,
    "Just</w>": 2864,
    "she's</w>": 2865,
    "situ": 2866,
    "__": 2867,
    "hon": 2868,
    "them.</w>": 2869,
    "sex": 2870,
    "coming</w>": 2871,
    "Re": 2872,
    "time.</w>": 2873,
    "uring</w>": 2874,
    "idea</w>": 2875,
    "Thanks</w>": 2876,
    "Ma": 2877,
    "men": 2878,
    "ugh": 2879,
    "vide": 2880,
    "mal": 2881,
    "eve</w>": 2882,
    "8</w>": 2883,
    "ber": 2884,
    "took</w>": 2885,
    "line</w>": 2886,
    "ations</w>": 2887,
    "ys": 2888,
    "vie": 2889,
    "remem": 2890,
    "gt": 2891,
    "iting</w>": 2892,
    "decided</w>": 2893,
    "port": 2894,
    "fort": 2895,
    "mes": 2896,
    "iti": 2897,
    "ited</w>": 2898,
    "speci": 2899,
    "wonder": 2900,
    "Why</w>": 2901,
    "res</w>": 2902,
    "heal": 2903,
    "suggest": 2904,
    "isn't</w>": 2905,
    "ously</w>": 2906,
    "almost</w>": 2907,
    "ey": 2908,
    "such</w>": 2909,
    "didn’t</w>": 2910,
    "&gt": 2911,
    "ty</w>": 2912,
    "long": 2913,
    "serv": 2914,
    "dat": 2915,
    "goo": 2916,
    "hal": 2917,
    "ele": 2918,
    "reddit</w>": 2919,
    "high</w>": 2920,
    "im</w>": 2921,
    "grou": 2922,
    "tiv": 2923,
    "again</w>": 2924,
    "chec": 2925,
    "she": 2926,
    "phone</w>": 2927,
    "ago</w>": 2928,
    "top</w>": 2929,
    "200": 2930,
    "ount</w>": 2931,
    "ven</w>": 2932,
    "plac": 2933,
    "Do": 2934,
    "chil": 2935,
    "lar": 2936,
    "haven": 2937,
    "7</w>": 2938,
    "sig": 2939,
    "stuff</w>": 2940,
    "10</w>": 2941,
    "least</w>": 2942,
    "amp": 2943,
    "bor": 2944,
    "understand</w>": 2945,
    "person": 2946,
    "C</w>": 2947,
    "sum": 2948,
    "once</w>": 2949,
    "ome</w>": 2950,
    "consid": 2951,
    "gener": 2952,
    "ture</w>": 2953,
    "secon": 2954,
    "him.</w>": 2955,
    "suc": 2956,
    "taking</w>": 2957,
    "te</w>": 2958,
    "rist": 2959,
    "past</w>": 2960,
    "bet": 2961,
    "bus": 2962,
    "back": 2963,
    "ust": 2964,
    "fucking</w>": 2965,
    "EDI": 2966,
    "M</w>": 2967,
    "relationship</w>": 2968,
    "tions</w>": 2969,
    "(</w>": 2970,
    "buy</w>": 2971,
    "ner</w>": 2972,
    "ild</w>": 2973,
    "pt</w>": 2974,
    "scre": 2975,
    "dro": 2976,
    "ye": 2977,
    "ered</w>": 2978,
    "happy</w>": 2979,
    "today</w>": 2980,
    "vor": 2981,
    "feeling</w>": 2982,
    "pas": 2983,
    "wasn't</w>": 2984,
    "fre": 2985,
    "wants</w>": 2986,
    "ist</w>": 2987,
    "act": 2988,
    "St": 2989,
    "bir": 2990,
    "R</w>": 2991,
    "called</w>": 2992,
    "gets</w>": 2993,
    "pi": 2994,
    "way.</w>": 2995,
    "ending</w>": 2996,
    "up.</w>": 2997,
    "ken</w>": 2998,
    "leg": 2999,
    "hours</w>": 3000,
    "re.</w>": 3001,
    "asking</w>": 3002,
    "ween</w>": 3003,
    "ge.</w>": 3004,
    "ended</w>": 3005,
    "realiz": 3006,
    "’re</w>": 3007,
    "low</w>": 3008,
    "seem</w>": 3009,
    "expe": 3010,
    "sing": 3011,
    "ka": 3012,
    "9</w>": 3013,
    "For</w>": 3014,
    "On": 3015,
    "\".</w>": 3016,
    "school": 3017,
    "cri": 3018,
    "drin": 3019,
    "ual</w>": 3020,
    "car</w>": 3021,
    "nec": 3022,
    "between</w>": 3023,
    "appreci": 3024,
    "opp": 3025,
    "'ll</w>": 3026,
    "Be": 3027,
    "ation.</w>": 3028,
    "that.</w>": 3029,
    "inst": 3030,
    "believe</w>": 3031,
    "free</w>": 3032,
    "fron": 3033,
    "answ": 3034,
    "num": 3035,
    "les": 3036,
    "ering</w>": 3037,
    "L</w>": 3038,
    "please</w>": 3039,
    "Li": 3040,
    "bar": 3041,
    "together</w>": 3042,
    "can’t</w>": 3043,
    "hu": 3044,
    "during</w>": 3045,
    "this.</w>": 3046,
    "ards</w>": 3047,
    "problem</w>": 3048,
    "leave</w>": 3049,
    "ments</w>": 3050,
    "gl": 3051,
    "s!</w>": 3052,
    "tive</w>": 3053,
    "medi": 3054,
    "telling</w>": 3055,
    "comes</w>": 3056,
    "change</w>": 3057,
    "ack": 3058,
    "disc": 3059,
    "als</w>": 3060,
    "ever,</w>": 3061,
    "enjo": 3062,
    "ally,</w>": 3063,
    "grad": 3064,
    "'d</w>": 3065,
    "fic": 3066,
    "show</w>": 3067,
    "playing</w>": 3068,
    "small</w>": 3069,
    "story</w>": 3070,
    "ded</w>": 3071,
    "mother</w>": 3072,
    "real</w>": 3073,
    "ining</w>": 3074,
    "weeks</w>": 3075,
    "smo": 3076,
    "sister</w>": 3077,
    "ined</w>": 3078,
    "how": 3079,
    "head": 3080,
    "seri": 3081,
    "EDIT": 3082,
    "now.</w>": 3083,
    "hear</w>": 3084,
    "nta.</w>": 3085,
    "book</w>": 3086,
    "far</w>": 3087,
    "nice</w>": 3088,
    "seen</w>": 3089,
    "uni": 3090,
    "name</w>": 3091,
    "foo": 3092,
    "brother</w>": 3093,
    "recently</w>": 3094,
    "!!": 3095,
    "en,</w>": 3096,
    "orr": 3097,
    "reason</w>": 3098,
    "way,</w>": 3099,
    "Y</w>": 3100,
    "o.</w>": 3101,
    "en.</w>": 3102,
    "dev": 3103,
    "wrong</w>": 3104,
    "clas": 3105,
    "remember</w>": 3106,
    "qui": 3107,
    "|</w>": 3108,
    "head</w>": 3109,
    "advice</w>": 3110,
    "etc.</w>": 3111,
    "chang": 3112,
    "compu": 3113,
    "inste": 3114,
    "living</w>": 3115,
    "games</w>": 3116,
    "O</w>": 3117,
    "nta</w>": 3118,
    "ried</w>": 3119,
    "pur": 3120,
    "close</w>": 3121,
    "As</w>": 3122,
    "stay</w>": 3123,
    "saw</w>": 3124,
    "won't</w>": 3125,
    "Do</w>": 3126,
    "lev": 3127,
    "uck</w>": 3128,
    "al.</w>": 3129,
    "TH": 3130,
    "messa": 3131,
    "sive</w>": 3132,
    "turn</w>": 3133,
    "ear</w>": 3134,
    "mind</w>": 3135,
    "commun": 3136,
    "ately</w>": 3137,
    "ly.</w>": 3138,
    "Does</w>": 3139,
    "%</w>": 3140,
    "/</w>": 3141,
    "mean</w>": 3142,
    "IN": 3143,
    "&amp": 3144,
    "you.</w>": 3145,
    "soun": 3146,
    "clo": 3147,
    "oft": 3148,
    "Edit": 3149,
    "ther.</w>": 3150,
    "wife</w>": 3151,
    "time,</w>": 3152,
    "college</w>": 3153,
    "haven't</w>": 3154,
    "kids</w>": 3155,
    "B</w>": 3156,
    "ent.</w>": 3157,
    "vo": 3158,
    "conf": 3159,
    "ali": 3160,
    "clud": 3161,
    "bab": 3162,
    "youn": 3163,
    "ult</w>": 3164,
    "plo": 3165,
    "ide</w>": 3166,
    "solu": 3167,
    "duc": 3168,
    "full</w>": 3169,
    "are": 3170,
    "dic": 3171,
    "ise</w>": 3172,
    "proc": 3173,
    "expla": 3174,
    "quite</w>": 3175,
    "st.</w>": 3176,
    "girlfriend</w>": 3177,
    "it?</w>": 3178,
    "finally</w>": 3179,
    "es?</w>": 3180,
    "tru": 3181,
    "question</w>": 3182,
    "ative</w>": 3183,
    "either</w>": 3184,
    "sear": 3185,
    "--------": 3186,
    "hope</w>": 3187,
    "Af": 3188,
    "completely</w>": 3189,
    "one,</w>": 3190,
    "knew</w>": 3191,
    "yed</w>": 3192,
    "them": 3193,
    "Reddit,</w>": 3194,
    "new": 3195,
    "month</w>": 3196,
    "p.</w>": 3197,
    "lost</w>": 3198,
    "There</w>": 3199,
    "Sh": 3200,
    "this,</w>": 3201,
    "We": 3202,
    "boyfriend</w>": 3203,
    "nigh": 3204,
    "pen": 3205,
    "00</w>": 3206,
    "buil": 3207,
    "mag": 3208,
    "hat's</w>": 3209,
    "all.</w>": 3210,
    "eng": 3211,
    "myself": 3212,
    "ici": 3213,
    "cat": 3214,
    "usually</w>": 3215,
    "AM": 3216,
    "Can</w>": 3217,
    "question": 3218,
    "ling</w>": 3219,
    "in.</w>": 3220,
    "Anyone</w>": 3221,
    "lease</w>": 3222,
    "tran": 3223,
    "open</w>": 3224,
    "there's</w>": 3225,
    "ome": 3226,
    "ran": 3227,
    "P</w>": 3228,
    "s)</w>": 3229,
    "obvi": 3230,
    "half</w>": 3231,
    "contro": 3232,
    "later</w>": 3233,
    "ind</w>": 3234,
    "now,</w>": 3235,
    "should": 3236,
    "20</w>": 3237,
    "iter": 3238,
    "ug": 3239,
    "En": 3240,
    "maz": 3241,
    "depres": 3242,
    "ge,</w>": 3243,
    "tom": 3244,
    "dra": 3245,
    "bur": 3246,
    "thing,</w>": 3247,
    "Go": 3248,
    "possib": 3249,
    "usb": 3250,
    "ch.</w>": 3251,
    "reli": 3252,
    "wondering</w>": 3253,
    "experienc": 3254,
    "dog</w>": 3255,
    "wouldn't</w>": 3256,
    "ics</w>": 3257,
    "gave</w>": 3258,
    "needs</w>": 3259,
    "ie</w>": 3260,
    "c</w>": 3261,
    "a.</w>": 3262,
    "three</w>": 3263,
    "Now</w>": 3264,
    "tor": 3265,
    "fully</w>": 3266,
    "happened</w>": 3267,
    "one": 3268,
    "ept</w>": 3269,
    "heard</w>": 3270,
    "world</w>": 3271,
    "your": 3272,
    "contin": 3273,
    "stra": 3274,
    "rely</w>": 3275,
    "emo": 3276,
    "tain</w>": 3277,
    "run</w>": 3278,
    "guess</w>": 3279,
    "food</w>": 3280,
    "husb": 3281,
    "arly</w>": 3282,
    "wish</w>": 3283,
    "G</w>": 3284,
    "ze</w>": 3285,
    "life.</w>": 3286,
    "a,</w>": 3287,
    "watch</w>": 3288,
    "deal</w>": 3289,
    "great": 3290,
    "stat": 3291,
    "Reddit</w>": 3292,
    "I’ve</w>": 3293,
    "bit": 3294,
    "hard": 3295,
    "experience</w>": 3296,
    "group</w>": 3297,
    "ward</w>": 3298,
    "s:</w>": 3299,
    "favor": 3300,
    "pow": 3301,
    "birth": 3302,
    "sul": 3303,
    "s/": 3304,
    "gott": 3305,
    "sex</w>": 3306,
    "fec": 3307,
    "lling</w>": 3308,
    "peci": 3309,
    "osed</w>": 3310,
    "val": 3311,
    "shed</w>": 3312,
    "defin": 3313,
    "front</w>": 3314,
    "After</w>": 3315,
    "Hey</w>": 3316,
    "ton": 3317,
    "i've</w>": 3318,
    "more.</w>": 3319,
    "war": 3320,
    "not": 3321,
    "spea": 3322,
    "son</w>": 3323,
    "led</w>": 3324,
    "her,</w>": 3325,
    "en't</w>": 3326,
    "xi": 3327,
    "includ": 3328,
    "follow": 3329,
    "fact</w>": 3330,
    "mid": 3331,
    "Not</w>": 3332,
    "spo": 3333,
    "ird</w>": 3334,
    "they're</w>": 3335,
    "hum": 3336,
    "instead</w>": 3337,
    "ve.</w>": 3338,
    "sion": 3339,
    "goes</w>": 3340,
    "grand": 3341,
    "out,</w>": 3342,
    "That</w>": 3343,
    "spend</w>": 3344,
    "appro": 3345,
    "sort</w>": 3346,
    "progr": 3347,
    "hor": 3348,
    "exam": 3349,
    "comfort": 3350,
    "ones</w>": 3351,
    "again.</w>": 3352,
    "ner": 3353,
    "couldn't</w>": 3354,
    "bed</w>": 3355,
    "video</w>": 3356,
    "inform": 3357,
    "interested</w>": 3358,
    "gon": 3359,
    "nt</w>": 3360,
    "tit": 3361,
    "mul": 3362,
    "ly": 3363,
    "pan": 3364,
    "direc": 3365,
    "honest": 3366,
    "dont</w>": 3367,
    "lim": 3368,
    "ing?</w>": 3369,
    "date</w>": 3370,
    "So,</w>": 3371,
    "trac": 3372,
    "al,</w>": 3373,
    "st,</w>": 3374,
    "norm": 3375,
    "giving</w>": 3376,
    "Wi": 3377,
    "is,</w>": 3378,
    "eat</w>": 3379,
    "fini": 3380,
    "seeing</w>": 3381,
    "due</w>": 3382,
    "cal": 3383,
    "cho": 3384,
    "ush": 3385,
    "argu": 3386,
    "fuck</w>": 3387,
    "ched</w>": 3388,
    "basically</w>": 3389,
    "second</w>": 3390,
    "olog": 3391,
    "EDIT:</w>": 3392,
    "under</w>": 3393,
    "fun</w>": 3394,
    "asshole</w>": 3395,
    "ver</w>": 3396,
    "ys,</w>": 3397,
    "AN": 3398,
    "moved</w>": 3399,
    "up,</w>": 3400,
    "here.</w>": 3401,
    "19": 3402,
    "convers": 3403,
    "ster</w>": 3404,
    "+</w>": 3405,
    "social</w>": 3406,
    "ad.</w>": 3407,
    "tow": 3408,
    "that,</w>": 3409,
    "ation,</w>": 3410,
    ".)</w>": 3411,
    "const": 3412,
    "ive</w>": 3413,
    "web": 3414,
    "’ll</w>": 3415,
    "hit</w>": 3416,
    "Amer": 3417,
    "ows</w>": 3418,
    "gonna</w>": 3419,
    "Americ": 3420,
    "met</w>": 3421,
    "minutes</w>": 3422,
    "mean": 3423,
    "him": 3424,
    "sca": 3425,
    "famil": 3426,
    "in,</w>": 3427,
    "Pro": 3428,
    "ility</w>": 3429,
    "bought</w>": 3430,
    "pped</w>": 3431,
    "ity.</w>": 3432,
    "import": 3433,
    "rather</w>": 3434,
    "against</w>": 3435,
    "AT": 3436,
    "sometimes</w>": 3437,
    "re,</w>": 3438,
    "/r/": 3439,
    "do.</w>": 3440,
    "stup": 3441,
    "view": 3442,
    "currently</w>": 3443,
    "u</w>": 3444,
    "notic": 3445,
    "like": 3446,
    "din": 3447,
    "especi": 3448,
    "awes": 3449,
    "antly</w>": 3450,
    "single</w>": 3451,
    "ustr": 3452,
    "feels</w>": 3453,
    "All</w>": 3454,
    "starting</w>": 3455,
    "prom": 3456,
    "da</w>": 3457,
    "ns</w>": 3458,
    "lan": 3459,
    "No</w>": 3460,
    "needed</w>": 3461,
    "tion.</w>": 3462,
    "respe": 3463,
    "agre": 3464,
    "light</w>": 3465,
    "opin": 3466,
    "ts.</w>": 3467,
    "mp": 3468,
    "&gt;": 3469,
    "publ": 3470,
    "(I</w>": 3471,
    "site</w>": 3472,
    "sci": 3473,
    "especially</w>": 3474,
    "stand": 3475,
    "ice.</w>": 3476,
    "support</w>": 3477,
    "To</w>": 3478,
    "incre": 3479,
    "liter": 3480,
    "busin": 3481,
    "Con": 3482,
    "ent,</w>": 3483,
    "vot": 3484,
    "keep": 3485,
    "bring</w>": 3486,
    "&</w>": 3487,
    "fig": 3488,
    "oka": 3489,
    "US": 3490,
    "cop": 3491,
    "me?</w>": 3492,
    "los": 3493,
    "recomm": 3494,
    "bun": 3495,
    "nam": 3496,
    "ply</w>": 3497,
    "possible</w>": 3498,
    "we're</w>": 3499,
    "dog": 3500,
    "ate": 3501,
    "rand": 3502,
    "ster": 3503,
    "running</w>": 3504,
    "reading</w>": 3505,
    "wanting</w>": 3506,
    "h,</w>": 3507,
    "extre": 3508,
    "become</w>": 3509,
    "30</w>": 3510,
    "him,</w>": 3511,
    "Un": 3512,
    "this?</w>": 3513,
    "Thank": 3514,
    "there.</w>": 3515,
    "sal": 3516,
    "break</w>": 3517,
    "How": 3518,
    "looks</w>": 3519,
    "discus": 3520,
    "reason": 3521,
    "maj": 3522,
    "Edit:</w>": 3523,
    "share</w>": 3524,
    "t?</w>": 3525,
    "list</w>": 3526,
    "Se": 3527,
    "?\"</w>": 3528,
    "top": 3529,
    "dd": 3530,
    "watching</w>": 3531,
    "tot": 3532,
    "ail": 3533,
    "wrong": 3534,
    "sever": 3535,
    "ters</w>": 3536,
    "partic": 3537,
    "Christ": 3538,
    "amaz": 3539,
    "face</w>": 3540,
    "you,</w>": 3541,
    "music</w>": 3542,
    "itely</w>": 3543,
    "yet</w>": 3544,
    "ound": 3545,
    "sounds</w>": 3546,
    "emp": 3547,
    "appe": 3548,
    "z</w>": 3549,
    "owing</w>": 3550,
    "worth</w>": 3551,
    "pho": 3552,
    "hol": 3553,
    "K</w>": 3554,
    "health": 3555,
    "100": 3556,
    "along</w>": 3557,
    "’d</w>": 3558,
    "F</w>": 3559,
    "sorry</w>": 3560,
    "work.</w>": 3561,
    "cut</w>": 3562,
    "well.</w>": 3563,
    "ON": 3564,
    "atur": 3565,
    "daugh": 3566,
    "mental</w>": 3567,
    "dist": 3568,
    "ket</w>": 3569,
    "15": 3570,
    "Some": 3571,
    "ening</w>": 3572,
    "zy</w>": 3573,
    "father</w>": 3574,
    "To": 3575,
    "ross</w>": 3576,
    "doesn’t</w>": 3577,
    "har": 3578,
    "drive</w>": 3579,
    "prof": 3580,
    "One</w>": 3581,
    "order</w>": 3582,
    "prov": 3583,
    "often</w>": 3584,
    "ker</w>": 3585,
    "rest</w>": 3586,
    "id,</w>": 3587,
    "turned</w>": 3588,
    "situation</w>": 3589,
    "type</w>": 3590,
    "simil": 3591,
    "net</w>": 3592,
    "ush</w>": 3593,
    "check</w>": 3594,
    "hun": 3595,
    "tomorr": 3596,
    "inc": 3597,
    "ss": 3598,
    "Please</w>": 3599,
    "wait</w>": 3600,
    "phys": 3601,
    "ore</w>": 3602,
    "looked</w>": 3603,
    "all,</w>": 3604,
    "favorite</w>": 3605,
    "ship</w>": 3606,
    "ny</w>": 3607,
    "ban": 3608,
    "he’s</w>": 3609,
    "alone</w>": 3610,
    "sl": 3611,
    "class</w>": 3612,
    "cas": 3613,
    "concer": 3614,
    "mil": 3615,
    "ire</w>": 3616,
    "ther,</w>": 3617,
    "RE": 3618,
    "hurt</w>": 3619,
    "Hel": 3620,
    "hour</w>": 3621,
    "pick</w>": 3622,
    "wed": 3623,
    "sleep</w>": 3624,
    "given</w>": 3625,
    "fra": 3626,
    "!!</w>": 3627,
    "anno": 3628,
    "ere's</w>": 3629,
    "kn": 3630,
    "entire</w>": 3631,
    "husband</w>": 3632,
    "ignor": 3633,
    "](</w>": 3634,
    "Also,</w>": 3635,
    "Can": 3636,
    "ins</w>": 3637,
    "cla": 3638,
    "ester": 3639,
    "cul": 3640,
    "whe": 3641,
    "At</w>": 3642,
    "non": 3643,
    "ema": 3644,
    "od": 3645,
    "tou": 3646,
    "dou": 3647,
    "De": 3648,
    "apart": 3649,
    "meet</w>": 3650,
    "dle</w>": 3651,
    "plan</w>": 3652,
    "others</w>": 3653,
    "ude</w>": 3654,
    "ort": 3655,
    "mas": 3656,
    "ugg": 3657,
    "online</w>": 3658,
    "Ha": 3659,
    "sleep": 3660,
    "sent</w>": 3661,
    "terri": 3662,
    "team</w>": 3663,
    "kill": 3664,
    "gone</w>": 3665,
    "12": 3666,
    "must</w>": 3667,
    "stuff": 3668,
    "fect</w>": 3669,
    "kept</w>": 3670,
    "manag": 3671,
    "course</w>": 3672,
    "Ar": 3673,
    "knows</w>": 3674,
    "stopp": 3675,
    "p,</w>": 3676,
    "ex</w>": 3677,
    "Qu": 3678,
    "them,</w>": 3679,
    "upset</w>": 3680,
    "years.</w>": 3681,
    "tired</w>": 3682,
    "ch,</w>": 3683,
    "a?</w>": 3684,
    "outside</w>": 3685,
    "pit": 3686,
    "far": 3687,
    "grap": 3688,
    "posit": 3689,
    "beh": 3690,
    "she’s</w>": 3691,
    "charac": 3692,
    "righ": 3693,
    "Or</w>": 3694,
    "girls</w>": 3695,
    ":**</w>": 3696,
    "emplo": 3697,
    "ble": 3698,
    "gotten</w>": 3699,
    "dam": 3700,
    "ends</w>": 3701,
    "fine</w>": 3702,
    "fic</w>": 3703,
    "woman</w>": 3704,
    "ke,</w>": 3705,
    "most": 3706,
    "ke.</w>": 3707,
    "enjoy</w>": 3708,
    "bra": 3709,
    "____": 3710,
    "produc": 3711,
    "huge</w>": 3712,
    "anxi": 3713,
    "whatever</w>": 3714,
    "to.</w>": 3715,
    "ality</w>": 3716,
    "morning</w>": 3717,
    "there": 3718,
    "religi": 3719,
    "ang</w>": 3720,
    "ologi": 3721,
    "um</w>": 3722,
    "literally</w>": 3723,
    "computer</w>": 3724,
    "or.</w>": 3725,
    "mer</w>": 3726,
    "recei": 3727,
    "#x": 3728,
    "number</w>": 3729,
    "os</w>": 3730,
    "#x200": 3731,
    "pis": 3732,
    "projec": 3733,
    "ates</w>": 3734,
    "several</w>": 3735,
    "wanna</w>": 3736,
    "broke</w>": 3737,
    "event": 3738,
    "amount</w>": 3739,
    "account</w>": 3740,
    "e:</w>": 3741,
    "(and</w>": 3742,
    ":)</w>": 3743,
    "figure</w>": 3744,
    "soon</w>": 3745,
    "th.</w>": 3746,
    "inf": 3747,
    "--</w>": 3748,
    "Then</w>": 3749,
    "&amp;</w>": 3750,
    "ger</w>": 3751,
    "test": 3752,
    "childr": 3753,
    "tab": 3754,
    "solutely</w>": 3755,
    "bloc": 3756,
    "ts,</w>": 3757,
    "comfortable</w>": 3758,
    "you’re</w>": 3759,
    "moving</w>": 3760,
    "ment.</w>": 3761,
    "send</w>": 3762,
    "ities</w>": 3763,
    "light": 3764,
    "super</w>": 3765,
    "user</w>": 3766,
    "women</w>": 3767,
    "org": 3768,
    "issues</w>": 3769,
    "means</w>": 3770,
    "fil": 3771,
    "ky</w>": 3772,
    "....</w>": 3773,
    "parent": 3774,
    "Ex": 3775,
    "ction</w>": 3776,
    "too.</w>": 3777,
    "edit": 3778,
    "mely</w>": 3779,
    "30": 3780,
    "pref": 3781,
    "ma</w>": 3782,
    "definitely</w>": 3783,
    "Don": 3784,
    "worked</w>": 3785,
    "ay</w>": 3786,
    "taken</w>": 3787,
    "care": 3788,
    "ve,</w>": 3789,
    "du": 3790,
    "Su": 3791,
    "dating</w>": 3792,
    "25": 3793,
    "pping</w>": 3794,
    "child</w>": 3795,
    "ated.</w>": 3796,
    "mone": 3797,
    "fair": 3798,
    "text</w>": 3799,
    "Le": 3800,
    "What's</w>": 3801,
    "??</w>": 3802,
    "ness</w>": 3803,
    "male</w>": 3804,
    "laugh": 3805,
    "assho": 3806,
    "short</w>": 3807,
    "led": 3808,
    "Thank</w>": 3809,
    "desig": 3810,
    "vir": 3811,
    "party</w>": 3812,
    "is.</w>": 3813,
    "early</w>": 3814,
    "absolutely</w>": 3815,
    "order": 3816,
    "case</w>": 3817,
    "Bl": 3818,
    "angr": 3819,
    "aren't</w>": 3820,
    "11": 3821,
    "exist": 3822,
    "ck</w>": 3823,
    "reg": 3824,
    "mine</w>": 3825,
    "multi": 3826,
    "U</w>": 3827,
    "talked</w>": 3828,
    "&gt;</w>": 3829,
    "cool</w>": 3830,
    "pictu": 3831,
    "ety</w>": 3832,
    "Bo": 3833,
    "learn</w>": 3834,
    "world": 3835,
    "kid</w>": 3836,
    "current</w>": 3837,
    "understand": 3838,
    "fli": 3839,
    "ag</w>": 3840,
    "view</w>": 3841,
    "emotion": 3842,
    "doct": 3843,
    "lap": 3844,
    "ed?</w>": 3845,
    "resul": 3846,
    "kinda</w>": 3847,
    "sound</w>": 3848,
    "stem</w>": 3849,
    "V</w>": 3850,
    "ers.</w>": 3851,
    "add</w>": 3852,
    "issue</w>": 3853,
    "word</w>": 3854,
    "walk</w>": 3855,
    "that’s</w>": 3856,
    "hold</w>": 3857,
    "ter.</w>": 3858,
    "company</w>": 3859,
    "ad,</w>": 3860,
    "questions</w>": 3861,
    "Par": 3862,
    "right": 3863,
    "law": 3864,
    "gradu": 3865,
    "plic": 3866,
    "ers,</w>": 3867,
    "hand</w>": 3868,
    "longer</w>": 3869,
    "rac": 3870,
    "\",</w>": 3871,
    "Are</w>": 3872,
    "matter</w>": 3873,
    "mad</w>": 3874,
    "us.</w>": 3875,
    "extremely</w>": 3876,
    "normal</w>": 3877,
    "works</w>": 3878,
    "tern": 3879,
    "late</w>": 3880,
    "un</w>": 3881,
    "sty": 3882,
    "accoun": 3883,
    "extr": 3884,
    "back.</w>": 3885,
    "uses</w>": 3886,
    "ER": 3887,
    "behind</w>": 3888,
    "hy": 3889,
    "allow": 3890,
    "spent</w>": 3891,
    "personal</w>": 3892,
    "invol": 3893,
    "....": 3894,
    "elop": 3895,
    "form</w>": 3896,
    "nes": 3897,
    "eri": 3898,
    "tail": 3899,
    "sted</w>": 3900,
    "Mar": 3901,
    "Pe": 3902,
    "weird</w>": 3903,
    "sch": 3904,
    "similar</w>": 3905,
    "ity,</w>": 3906,
    "adi": 3907,
    "dum": 3908,
    "paid</w>": 3909,
    "sour": 3910,
    "pop": 3911,
    "int</w>": 3912,
    "miss</w>": 3913,
    "inten": 3914,
    "gn": 3915,
    "med</w>": 3916,
    "stom": 3917,
    "regu": 3918,
    "orig": 3919,
    "W</w>": 3920,
    "sho": 3921,
    "played</w>": 3922,
    "tech": 3923,
    "bott": 3924,
    "program": 3925,
    "erg": 3926,
    "ince</w>": 3927,
    "trav": 3928,
    "Some</w>": 3929,
    "link</w>": 3930,
    "wind": 3931,
    "k?</w>": 3932,
    "explain</w>": 3933,
    "lose</w>": 3934,
    "suppor": 3935,
    "ular</w>": 3936,
    "ago,</w>": 3937,
    "main</w>": 3938,
    "important</w>": 3939,
    "Fr": 3940,
    "mas</w>": 3941,
    "cannot</w>": 3942,
    "trou": 3943,
    "answer</w>": 3944,
    "supposed</w>": 3945,
    "men</w>": 3946,
    "beg": 3947,
    "baby</w>": 3948,
    "bs</w>": 3949,
    "diffic": 3950,
    "exact": 3951,
    "sting</w>": 3952,
    "based</w>": 3953,
    "or,</w>": 3954,
    "way": 3955,
    "thre": 3956,
    "birthday</w>": 3957,
    "door</w>": 3958,
    "weight</w>": 3959,
    "50": 3960,
    "forward</w>": 3961,
    "honestly</w>": 3962,
    "problems</w>": 3963,
    "begin": 3964,
    "TL": 3965,
    "who": 3966,
    "sick</w>": 3967,
    "compla": 3968,
    "Loo": 3969,
    "ats</w>": 3970,
    "water</w>": 3971,
    "ement</w>": 3972,
    "noticed</w>": 3973,
    "connec": 3974,
    "e-": 3975,
    "X</w>": 3976,
    "fail": 3977,
    "card</w>": 3978,
    "15</w>": 3979,
    "willing</w>": 3980,
    "struc": 3981,
    "dep": 3982,
    "AL": 3983,
    "auti": 3984,
    "e!</w>": 3985,
    "health</w>": 3986,
    "cent": 3987,
    "ow,</w>": 3988,
    "realize</w>": 3989,
    "stupid</w>": 3990,
    "what's</w>": 3991,
    "ice,</w>": 3992,
    "succ": 3993,
    "myself.</w>": 3994,
    "deal": 3995,
    "guil": 3996,
    "ST": 3997,
    "apologi": 3998,
    "anymore.</w>": 3999,
    "neigh": 4000,
    "happen</w>": 4001,
    "bri": 4002,
    "wib": 4003,
    "However,</w>": 4004,
    "paying</w>": 4005,
    "ses": 4006,
    "origin": 4007,
    "mostly</w>": 4008,
    "decis": 4009,
    "le?</w>": 4010,
    "again,</w>": 4011,
    "DA": 4012,
    "ches</w>": 4013,
    "drun": 4014,
    "takes</w>": 4015,
    "ised</w>": 4016,
    "avo": 4017,
    "friends.</w>": 4018,
    "cted</w>": 4019,
    "curi": 4020,
    "DR": 4021,
    "loved</w>": 4022,
    "off.</w>": 4023,
    "towards</w>": 4024,
    "leaving</w>": 4025,
    "lied</w>": 4026,
    "cle</w>": 4027,
    "thanks</w>": 4028,
    "known</w>": 4029,
    "local</w>": 4030,
    "feelings</w>": 4031,
    "responsi": 4032,
    "posted</w>": 4033,
    "attrac": 4034,
    "e)</w>": 4035,
    "thinks</w>": 4036,
    "sn": 4037,
    "polit": 4038,
    "ming</w>": 4039,
    "Ever": 4040,
    "Should</w>": 4041,
    "friend.</w>": 4042,
    "50</w>": 4043,
    "system</w>": 4044,
    "avail": 4045,
    "It’s</w>": 4046,
    "ago.</w>": 4047,
    "ic,</w>": 4048,
    "eating</w>": 4049,
    "sts</w>": 4050,
    "simply</w>": 4051,
    "able.</w>": 4052,
    "extra</w>": 4053,
    "ks.</w>": 4054,
    "figu": 4055,
    "Ad": 4056,
    "well,</w>": 4057,
    "immedi": 4058,
    "certain</w>": 4059,
    "enever</w>": 4060,
    "people.</w>": 4061,
    "fast</w>": 4062,
    "do?</w>": 4063,
    "PS": 4064,
    "yester": 4065,
    "win": 4066,
    "expen": 4067,
    "suggestions</w>": 4068,
    "easy</w>": 4069,
    "build</w>": 4070,
    "adm": 4071,
    "obviously</w>": 4072,
    "hell</w>": 4073,
    "New</w>": 4074,
    "land": 4075,
    "lish</w>": 4076,
    "ove</w>": 4077,
    "teac": 4078,
    "Bu": 4079,
    "store</w>": 4080,
    "search</w>": 4081,
    "err": 4082,
    "exactly</w>": 4083,
    "ic.</w>": 4084,
    "oud</w>": 4085,
    "deser": 4086,
    "country</w>": 4087,
    "ideas</w>": 4088,
    "ia</w>": 4089,
    "movie</w>": 4090,
    "accep": 4091,
    "therap": 4092,
    "bly</w>": 4093,
    "wher": 4094,
    "stopped</w>": 4095,
    "older</w>": 4096,
    "mention": 4097,
    "tem": 4098,
    "clean": 4099,
    "sitting</w>": 4100,
    "No": 4101,
    "photo": 4102,
    "vac": 4103,
    "Wor": 4104,
    "dea": 4105,
    "help.</w>": 4106,
    "middle</w>": 4107,
    "shing</w>": 4108,
    "On</w>": 4109,
    "ben": 4110,
    "realized</w>": 4111,
    "trip</w>": 4112,
    "ward": 4113,
    "Tr": 4114,
    "whether</w>": 4115,
    "He": 4116,
    "og": 4117,
    "fy</w>": 4118,
    "ip": 4119,
    "hang</w>": 4120,
    "dem": 4121,
    "=</w>": 4122,
    "leav": 4123,
    "se?</w>": 4124,
    "pot": 4125,
    "comments</w>": 4126,
    "beha": 4127,
    "work,</w>": 4128,
    "appar": 4129,
    "18": 4130,
    "black</w>": 4131,
    "ute</w>": 4132,
    "ices</w>": 4133,
    "2.</w>": 4134,
    "main": 4135,
    "thank</w>": 4136,
    "wibta</w>": 4137,
    "b;</w>": 4138,
    "fur": 4139,
    "large</w>": 4140,
    "16": 4141,
    "&#x200": 4142,
    "&#x200b;</w>": 4143,
    "bla": 4144,
    "pac": 4145,
    "forc": 4146,
    "fla": 4147,
    "constantly</w>": 4148,
    "sit</w>": 4149,
    "ens</w>": 4150,
    "anything.</w>": 4151,
    "within</w>": 4152,
    "contact</w>": 4153,
    "state</w>": 4154,
    "box</w>": 4155,
    "atten": 4156,
    "canc": 4157,
    "non-": 4158,
    "young</w>": 4159,
    "across</w>": 4160,
    "seemed</w>": 4161,
    "horri": 4162,
    "seas": 4163,
    "Maybe</w>": 4164,
    "graph": 4165,
    "i’ve</w>": 4166,
    "awesome</w>": 4167,
    "NO": 4168,
    "ped</w>": 4169,
    "!\"</w>": 4170,
    "ion.</w>": 4171,
    "wer": 4172,
    "imag": 4173,
    "Br": 4174,
    "you've</w>": 4175,
    "butt": 4176,
    "Me": 4177,
    "ggest</w>": 4178,
    "brought</w>": 4179,
    "er?</w>": 4180,
    "yta": 4181,
    "business</w>": 4182,
    "Every": 4183,
    "calling</w>": 4184,
    "chance</w>": 4185,
    "Po": 4186,
    "strugg": 4187,
    "develop": 4188,
    "messag": 4189,
    "reddit,</w>": 4190,
    "likely</w>": 4191,
    "putting</w>": 4192,
    "mou": 4193,
    "anim": 4194,
    "gle</w>": 4195,
    "wasn’t</w>": 4196,
    "just": 4197,
    "ground</w>": 4198,
    "dit.</w>": 4199,
    "year.</w>": 4200,
    "appreciate</w>": 4201,
    "example": 4202,
    "deb": 4203,
    "after": 4204,
    "level</w>": 4205,
    "yell": 4206,
    "net": 4207,
    "hair</w>": 4208,
    "here,</w>": 4209,
    "Jo": 4210,
    "said,</w>": 4211,
    "damn</w>": 4212,
    "ism</w>": 4213,
    "bers</w>": 4214,
    "write</w>": 4215,
    "ili": 4216,
    "scen": 4217,
    "th,</w>": 4218,
    "tion,</w>": 4219,
    "near</w>": 4220,
    "board</w>": 4221,
    "Would</w>": 4222,
    "tl": 4223,
    "use": 4224,
    "tells</w>": 4225,
    "sense</w>": 4226,
    "break": 4227,
    "home.</w>": 4228,
    "information</w>": 4229,
    "area</w>": 4230,
    "time": 4231,
    "Im</w>": 4232,
    "appo": 4233,
    "log": 4234,
    "Mon": 4235,
    "mate</w>": 4236,
    "clean</w>": 4237,
    "activ": 4238,
    "bud": 4239,
    "comment": 4240,
    "recor": 4241,
    "hoping</w>": 4242,
    "stand</w>": 4243,
    "continu": 4244,
    "Fir": 4245,
    "je": 4246,
    "conversation</w>": 4247,
    "sil": 4248,
    "correc": 4249,
    "ened</w>": 4250,
    "power</w>": 4251,
    "ational</w>": 4252,
    "(or</w>": 4253,
    "12</w>": 4254,
    "surpri": 4255,
    "clu": 4256,
    "Ph": 4257,
    "town</w>": 4258,
    "1.</w>": 4259,
    "message</w>": 4260,
    "an,</w>": 4261,
    "hang": 4262,
    "y)</w>": 4263,
    "kill</w>": 4264,
    "vol": 4265,
    "hoo": 4266,
    "team": 4267,
    "pain</w>": 4268,
    "foc": 4269,
    "fied</w>": 4270,
    "angry</w>": 4271,
    "save</w>": 4272,
    "2.": 4273,
    "heart</w>": 4274,
    "marri": 4275,
    ".com": 4276,
    "us,</w>": 4277,
    "away.</w>": 4278,
    "life,</w>": 4279,
    "load": 4280,
    "itting</w>": 4281,
    "trans": 4282,
    "ativ": 4283,
    "married</w>": 4284,
    "has": 4285,
    "crazy</w>": 4286,
    "daughter</w>": 4287,
    "quick": 4288,
    "ima": 4289,
    "friends,</w>": 4290,
    "luc": 4291,
    "ks,</w>": 4292,
    "wel": 4293,
    "prote": 4294,
    "there,</w>": 4295,
    "fortun": 4296,
    "memor": 4297,
    "finding</w>": 4298,
    "scared</w>": 4299,
    "okay</w>": 4300,
    "lled</w>": 4301,
    "ext": 4302,
    "cli": 4303,
    "waiting</w>": 4304,
    "ally.</w>": 4305,
    "atu": 4306,
    "years,</w>": 4307,
    "stem": 4308,
    "internet</w>": 4309,
    "Tw": 4310,
    "vari": 4311,
    "through": 4312,
    "ping</w>": 4313,
    "lad": 4314,
    "fix</w>": 4315,
    "sexual</w>": 4316,
    "bos": 4317,
    "pay": 4318,
    "1.": 4319,
    "bunch</w>": 4320,
    "key</w>": 4321,
    "tly</w>": 4322,
    "buying</w>": 4323,
    "worried</w>": 4324,
    "lun": 4325,
    "inside</w>": 4326,
    "gres": 4327,
    "@</w>": 4328,
    "behavi": 4329,
    "ills</w>": 4330,
    "knowled": 4331,
    "ous.</w>": 4332,
    "flo": 4333,
    "student</w>": 4334,
    "planning</w>": 4335,
    "totally</w>": 4336,
    "apartment</w>": 4337,
    "yea": 4338,
    "suff": 4339,
    "public</w>": 4340,
    "ball</w>": 4341,
    "words</w>": 4342,
    "straight</w>": 4343,
    "ur</w>": 4344,
    "week.</w>": 4345,
    "lar</w>": 4346,
    "Fri": 4347,
    "athe": 4348,
    "mum</w>": 4349,
    "US</w>": 4350,
    "shouldn't</w>": 4351,
    "control</w>": 4352,
    "problem": 4353,
    "clear</w>": 4354,
    "shes</w>": 4355,
    "eventually</w>": 4356,
    "changed</w>": 4357,
    "swit": 4358,
    "Here</w>": 4359,
    "purcha": 4360,
    "ju": 4361,
    "lt": 4362,
    "d?</w>": 4363,
    "dar": 4364,
    "lives</w>": 4365,
    "degre": 4366,
    "dol": 4367,
    "thoughts</w>": 4368,
    "affor": 4369,
    "rep": 4370,
    "l.</w>": 4371,
    "multiple</w>": 4372,
    "future</w>": 4373,
    "els</w>": 4374,
    "aliz": 4375,
    "organ": 4376,
    "langu": 4377,
    "ught</w>": 4378,
    "consider</w>": 4379,
    "anci": 4380,
    "except</w>": 4381,
    "afra": 4382,
    "song": 4383,
    "ste</w>": 4384,
    "wea": 4385,
    "sof": 4386,
    "city</w>": 4387,
    "v</w>": 4388,
    "Goo": 4389,
    "random</w>": 4390,
    "figured</w>": 4391,
    "drink</w>": 4392,
    "however,</w>": 4393,
    "ely,</w>": 4394,
    "friend,</w>": 4395,
    "sad</w>": 4396,
    "mista": 4397,
    "community</w>": 4398,
    "yourself</w>": 4399,
    "secur": 4400,
    "knowing</w>": 4401,
    "gy": 4402,
    "conv": 4403,
    "s...</w>": 4404,
    "do,</w>": 4405,
    "cow": 4406,
    "together.</w>": 4407,
    "sh.</w>": 4408,
    "amazing</w>": 4409,
    "fair</w>": 4410,
    "die</w>": 4411,
    "ece</w>": 4412,
    "wear</w>": 4413,
    "&lt": 4414,
    "necess": 4415,
    "s\"</w>": 4416,
    "overn": 4417,
    "christ": 4418,
    "gif": 4419,
    "starts</w>": 4420,
    "expect</w>": 4421,
    "step": 4422,
    "tain": 4423,
    "(which</w>": 4424,
    "ess.</w>": 4425,
    "Also</w>": 4426,
    "son": 4427,
    "yta</w>": 4428,
    "ability</w>": 4429,
    "trad": 4430,
    "lig": 4431,
    "proper": 4432,
    "frustr": 4433,
    "weekend</w>": 4434,
    "at.</w>": 4435,
    "white</w>": 4436,
    "profes": 4437,
    "shoo": 4438,
    "air": 4439,
    "load</w>": 4440,
    "&amp;": 4441,
    "major</w>": 4442,
    "with.</w>": 4443,
    "AS": 4444,
    "test</w>": 4445,
    "neg": 4446,
    "jum": 4447,
    "know,</w>": 4448,
    "(2": 4449,
    "Where</w>": 4450,
    "ap</w>": 4451,
    "know.</w>": 4452,
    "sett": 4453,
    "jud": 4454,
    "Like</w>": 4455,
    "ay": 4456,
    "aita?</w>": 4457,
    "ace": 4458,
    "Who</w>": 4459,
    "ever.</w>": 4460,
    "action</w>": 4461,
    "Di": 4462,
    "regard": 4463,
    "ond</w>": 4464,
    "Looking</w>": 4465,
    "claim": 4466,
    "night": 4467,
    "ls</w>": 4468,
    "suggestion": 4469,
    "fall": 4470,
    "dy": 4471,
    "detail": 4472,
    "king,</w>": 4473,
    ",00": 4474,
    "worst</w>": 4475,
    "offer</w>": 4476,
    "Has</w>": 4477,
    "pregn": 4478,
    "cir": 4479,
    "believ": 4480,
    "pat": 4481,
    "sched": 4482,
    "n.</w>": 4483,
    "bul": 4484,
    "Pre": 4485,
    "ligh": 4486,
    "afraid</w>": 4487,
    "For": 4488,
    "became</w>": 4489,
    "bar</w>": 4490,
    "3.": 4491,
    "pite</w>": 4492,
    "ast": 4493,
    "ger": 4494,
    "enough": 4495,
    "CO": 4496,
    "happens</w>": 4497,
    "ory</w>": 4498,
    "fit</w>": 4499,
    "wear": 4500,
    "we've</w>": 4501,
    "themsel": 4502,
    "decent</w>": 4503,
    "i'd</w>": 4504,
    "night.</w>": 4505,
    "interesting</w>": 4506,
    "picture</w>": 4507,
    "walking</w>": 4508,
    "whenever</w>": 4509,
    "morn": 4510,
    "vid": 4511,
    "compan": 4512,
    "space</w>": 4513,
    "tro": 4514,
    "not.</w>": 4515,
    "moment</w>": 4516,
    "driving</w>": 4517,
    "vote</w>": 4518,
    "11</w>": 4519,
    "ages</w>": 4520,
    "cat</w>": 4521,
    "cy": 4522,
    "stuck</w>": 4523,
    "incredi": 4524,
    "ate.</w>": 4525,
    "repor": 4526,
    "bad": 4527,
    ".”</w>": 4528,
    "serious</w>": 4529,
    "acting</w>": 4530,
    "tomorrow</w>": 4531,
    "AR": 4532,
    "----------------": 4533,
    "ound.</w>": 4534,
    "…</w>": 4535,
    "cant</w>": 4536,
    "def": 4537,
    "Even</w>": 4538,
    "school.</w>": 4539,
    "although</w>": 4540,
    "visit</w>": 4541,
    "Fe": 4542,
    "N</w>": 4543,
    "scri": 4544,
    "lead": 4545,
    "ight": 4546,
    "Here's</w>": 4547,
    "allowed</w>": 4548,
    "ment,</w>": 4549,
    "step</w>": 4550,
    "fort</w>": 4551,
    "ful.</w>": 4552,
    "requi": 4553,
    "simple</w>": 4554,
    "an.</w>": 4555,
    "ospit": 4556,
    "speak</w>": 4557,
    "figh": 4558,
    "squ": 4559,
    "listen</w>": 4560,
    "continue</w>": 4561,
    "posts</w>": 4562,
    "slow": 4563,
    "ee": 4564,
    "fairly</w>": 4565,
    "fall</w>": 4566,
    "till</w>": 4567,
    "Ti": 4568,
    "ian</w>": 4569,
    "!!!</w>": 4570,
    "school,</w>": 4571,
    "techn": 4572,
    "summer</w>": 4573,
    "writing</w>": 4574,
    "Gu": 4575,
    "page</w>": 4576,
    "liked</w>": 4577,
    "God</w>": 4578,
    "trust</w>": 4579,
    "posting</w>": 4580,
    "sou": 4581,
    "dream": 4582,
    "mentioned</w>": 4583,
    "Thanks!</w>": 4584,
    "general</w>": 4585,
    "Gre": 4586,
    "worse</w>": 4587,
    "lef": 4588,
    "follow</w>": 4589,
    "ton</w>": 4590,
    "actic": 4591,
    "push": 4592,
    "cting</w>": 4593,
    "fix": 4594,
    "ab</w>": 4595,
    "year,</w>": 4596,
    "ence.</w>": 4597,
    "Per": 4598,
    "actual</w>": 4599,
    "@user</w>": 4600,
    "tter</w>": 4601,
    "art</w>": 4602,
    "Am</w>": 4603,
    "handle</w>": 4604,
    "den": 4605,
    "table</w>": 4606,
    "age": 4607,
    "ier</w>": 4608,
    "descri": 4609,
    "wake</w>": 4610,
    "comment</w>": 4611,
    "sudd": 4612,
    "del": 4613,
    "email</w>": 4614,
    "anymore</w>": 4615,
    "zed</w>": 4616,
    "things.</w>": 4617,
    "itive</w>": 4618,
    "First</w>": 4619,
    "occas": 4620,
    "drop</w>": 4621,
    "dom": 4622,
    "thers</w>": 4623,
    "self.</w>": 4624,
    "swee": 4625,
    "tips</w>": 4626,
    "ING</w>": 4627,
    "today.</w>": 4628,
    "previ": 4629,
    "cap": 4630,
    "immediately</w>": 4631,
    "throw</w>": 4632,
    "fight</w>": 4633,
    "accid": 4634,
    "Mo": 4635,
    "itty</w>": 4636,
    "beauti": 4637,
    "mee": 4638,
    "difficult</w>": 4639,
    "Have</w>": 4640,
    "hospit": 4641,
    "ctr": 4642,
    "mach": 4643,
    "excited</w>": 4644,
    "sed.</w>": 4645,
    "unless</w>": 4646,
    "weigh": 4647,
    "govern": 4648,
    "DAE</w>": 4649,
    "server</w>": 4650,
    "pictures</w>": 4651,
    "asks</w>": 4652,
    "Peop": 4653,
    "3.</w>": 4654,
    "old": 4655,
    "dres": 4656,
    "down.</w>": 4657,
    "ance.</w>": 4658,
    "sun": 4659,
    "king.</w>": 4660,
    "itch": 4661,
    "building</w>": 4662,
    "sions</w>": 4663,
    "&lt;": 4664,
    "PM</w>": 4665,
    "following</w>": 4666,
    "cost</w>": 4667,
    "books</w>": 4668,
    "dition": 4669,
    "stop": 4670,
    "Bi": 4671,
    "versity</w>": 4672,
    "psy": 4673,
    "house.</w>": 4674,
    "children</w>": 4675,
    "specific</w>": 4676,
    "stro": 4677,
    "complete</w>": 4678,
    "Fin": 4679,
    "apparently</w>": 4680,
    "s).</w>": 4681,
    "bath": 4682,
    "lived</w>": 4683,
    "guy": 4684,
    "places</w>": 4685,
    "however</w>": 4686,
    "bal": 4687,
    "people,</w>": 4688,
    "ars</w>": 4689,
    "cro": 4690,
    "truly</w>": 4691,
    "including</w>": 4692,
    "dinner</w>": 4693,
    "lots</w>": 4694,
    "much.</w>": 4695,
    "trouble</w>": 4696,
    "bat": 4697,
    "Te": 4698,
    "yta.</w>": 4699,
    "educ": 4700,
    "finished</w>": 4701,
    "isn’t</w>": 4702,
    "aring</w>": 4703,
    "cam": 4704,
    "14": 4705,
    "job.</w>": 4706,
    "interest</w>": 4707,
    "mention</w>": 4708,
    "box": 4709,
    "afford</w>": 4710,
    "assum": 4711,
    "be.</w>": 4712,
    "stic</w>": 4713,
    "spir": 4714,
    "App": 4715,
    "custom": 4716,
    "san": 4717,
    "financi": 4718,
    "alco": 4719,
    "dad": 4720,
    "dress</w>": 4721,
    "17": 4722,
    "ter,</w>": 4723,
    "~~": 4724,
    "With</w>": 4725,
    "agree</w>": 4726,
    "effec": 4727,
    "curious</w>": 4728,
    "Min": 4729,
    "frea": 4730,
    "four</w>": 4731,
    "common</w>": 4732,
    "That's</w>": 4733,
    "barely</w>": 4734,
    "Fi": 4735,
    "Since</w>": 4736,
    "h.</w>": 4737,
    "tan": 4738,
    "card": 4739,
    "potenti": 4740,
    "n,</w>": 4741,
    "LE": 4742,
    "recommend": 4743,
    "considering</w>": 4744,
    "turns</w>": 4745,
    "to,</w>": 4746,
    "hot</w>": 4747,
    "cover": 4748,
    "item": 4749,
    "system": 4750,
    "OO": 4751,
    "ature</w>": 4752,
    "file</w>": 4753,
    "human</w>": 4754,
    "id.</w>": 4755,
    "24": 4756,
    "poo": 4757,
    ".9": 4758,
    "Help</w>": 4759,
    "ties</w>": 4760,
    "keeps</w>": 4761,
    "ok</w>": 4762,
    "\"I</w>": 4763,
    "room.</w>": 4764,
    "movi": 4765,
    "sk</w>": 4766,
    "uro": 4767,
    "hope": 4768,
    "y/": 4769,
    "Ca": 4770,
    "spending</w>": 4771,
    "AMA</w>": 4772,
    "aming</w>": 4773,
    "pass</w>": 4774,
    "office</w>": 4775,
    "People</w>": 4776,
    "died</w>": 4777,
    "heav": 4778,
    "somewhere</w>": 4779,
    "spec": 4780,
    "ses.</w>": 4781,
    "chi": 4782,
    "bed": 4783,
    "ell,</w>": 4784,
    "Don't</w>": 4785,
    "smoke</w>": 4786,
    "bre": 4787,
    "agreed</w>": 4788,
    "ideas": 4789,
    "epis": 4790,
    "roommate</w>": 4791,
    "ef</w>": 4792,
    "secre": 4793,
    "decide</w>": 4794,
    "night,</w>": 4795,
    "anybody</w>": 4796,
    "ached</w>": 4797,
    "allow</w>": 4798,
    "rom": 4799,
    "confid": 4800,
    "terrible</w>": 4801,
    "keeping</w>": 4802,
    "kis": 4803,
    "Col": 4804,
    "shows</w>": 4805,
    "appreciated.</w>": 4806,
    "family.</w>": 4807,
    "ug</w>": 4808,
    "weekend": 4809,
    "priv": 4810,
    "Ob": 4811,
    "gf</w>": 4812,
    "ck": 4813,
    "face": 4814,
    "anti": 4815,
    "requ": 4816,
    "good": 4817,
    "screen</w>": 4818,
    "offe": 4819,
    "title</w>": 4820,
    "gar": 4821,
    "learned</w>": 4822,
    "opport": 4823,
    "opportun": 4824,
    "abus": 4825,
    "ts?</w>": 4826,
    "Wind": 4827,
    "S.</w>": 4828,
    "install": 4829,
    "feed": 4830,
    "ology</w>": 4831,
    "possibly</w>": 4832,
    "smar": 4833,
    "via</w>": 4834,
    "shir": 4835,
    "child": 4836,
    "ran</w>": 4837,
    "American</w>": 4838,
    "cowor": 4839,
    "gives</w>": 4840,
    "better.</w>": 4841,
    "back,</w>": 4842,
    "song</w>": 4843,
    "anger</w>": 4844,
    "separ": 4845,
    "ras": 4846,
    "tl;": 4847,
    "TL;": 4848,
    "letting</w>": 4849,
    "haps</w>": 4850,
    "eld</w>": 4851,
    "version</w>": 4852,
    "ely.</w>": 4853,
    "que</w>": 4854,
    "position</w>": 4855,
    "ER</w>": 4856,
    "tonight</w>": 4857,
    "artic": 4858,
    "ce.</w>": 4859,
    "home": 4860,
    "arr": 4861,
    "despite</w>": 4862,
    "walked</w>": 4863,
    "holi": 4864,
    "draw": 4865,
    "ridic": 4866,
    "benef": 4867,
    "ces</w>": 4868,
    "missing</w>": 4869,
    "player</w>": 4870,
    "piece</w>": 4871,
    "people": 4872,
    "days.</w>": 4873,
    "l,</w>": 4874,
    "press</w>": 4875,
    "passed</w>": 4876,
    "100</w>": 4877,
    "liv": 4878,
    "go.</w>": 4879,
    "times.</w>": 4880,
    "suic": 4881,
    "gift</w>": 4882,
    "zz": 4883,
    "avoid</w>": 4884,
    "sume</w>": 4885,
    "subreddit</w>": 4886,
    "cloth": 4887,
    "bull": 4888,
    "wedding</w>": 4889,
    "Hi</w>": 4890,
    "area": 4891,
    "original</w>": 4892,
    "OU": 4893,
    "lack</w>": 4894,
    "earli": 4895,
    "rent</w>": 4896,
    "sign": 4897,
    "prove</w>": 4898,
    "repe": 4899,
    "healthy</w>": 4900,
    "more,</w>": 4901,
    "calls</w>": 4902,
    "board": 4903,
    "own.</w>": 4904,
    "communic": 4905,
    "had": 4906,
    "months.</w>": 4907,
    "respect</w>": 4908,
    "Every</w>": 4909,
    "equ": 4910,
    "kers</w>": 4911,
    "partner</w>": 4912,
    "lies</w>": 4913,
    "choose</w>": 4914,
    "pain": 4915,
    "gine": 4916,
    "boy</w>": 4917,
    "ink</w>": 4918,
    "king": 4919,
    "price</w>": 4920,
    "something.</w>": 4921,
    "ridicul": 4922,
    "hot": 4923,
    "legal</w>": 4924,
    "shit.</w>": 4925,
    "shot</w>": 4926,
    "staur": 4927,
    "related</w>": 4928,
    "safe": 4929,
    "Need</w>": 4930,
    "losing</w>": 4931,
    "restaur": 4932,
    "week,</w>": 4933,
    "ged</w>": 4934,
    "embar": 4935,
    "gro": 4936,
    "anxiety</w>": 4937,
    "indi": 4938,
    "refer": 4939,
    "Ab": 4940,
    "though,</w>": 4941,
    "aun": 4942,
    "tor</w>": 4943,
    "game.</w>": 4944,
    "sell</w>": 4945,
    "person.</w>": 4946,
    "Bas": 4947,
    "elebr": 4948,
    "exer": 4949,
    "website</w>": 4950,
    "enly</w>": 4951,
    "So": 4952,
    "sli": 4953,
    "gg</w>": 4954,
    "doub": 4955,
    "gay</w>": 4956,
    "worry</w>": 4957,
    "##": 4958,
    "offered</w>": 4959,
    "e/": 4960,
    "coffe": 4961,
    "likes</w>": 4962,
    "app</w>": 4963,
    "perio": 4964,
    "t-": 4965,
    "Am": 4966,
    "Star": 4967,
    "drunk</w>": 4968,
    "aching</w>": 4969,
    "Which</w>": 4970,
    "process</w>": 4971,
    "onto</w>": 4972,
    "aware</w>": 4973,
    "create</w>": 4974,
    "super": 4975,
    "credit</w>": 4976,
    "helping</w>": 4977,
    "am.</w>": 4978,
    "18</w>": 4979,
    "sh,</w>": 4980,
    "profession": 4981,
    "wonder</w>": 4982,
    "tend</w>": 4983,
    "conc": 4984,
    "place.</w>": 4985,
    "sibl": 4986,
    "grade</w>": 4987,
    "pm</w>": 4988,
    "funny</w>": 4989,
    "house": 4990,
    "here": 4991,
    "true</w>": 4992,
    "arti": 4993,
    "vent</w>": 4994,
    "other.</w>": 4995,
    "sus": 4996,
    "fell": 4997,
    "safe</w>": 4998,
    "ator</w>": 4999,
    "arri": 5000,
    "Co": 5001,
    "service</w>": 5002,
    "bing</w>": 5003,
    "brow": 5004,
    "tho": 5005,
    "Because</w>": 5006,
    "plans</w>": 5007,
    "medic": 5008,
    "helped</w>": 5009,
    "wo": 5010,
    "subjec": 5011,
    "job,</w>": 5012,
    "Your</w>": 5013,
    "Pr": 5014,
    "Gr": 5015,
    "natur": 5016,
    "gri": 5017,
    "Ac": 5018,
    "fish</w>": 5019,
    "shitty</w>": 5020,
    "meant</w>": 5021,
    "loves</w>": 5022,
    "generally</w>": 5023,
    "server": 5024,
    "awk": 5025,
    "smoking</w>": 5026,
    "clearly</w>": 5027,
    "ings.</w>": 5028,
    "irr": 5029,
    "univer": 5030,
    "imagine</w>": 5031,
    "genu": 5032,
    "road</w>": 5033,
    "celebr": 5034,
    "full": 5035,
    "here's</w>": 5036,
    "before.</w>": 5037,
    "compe": 5038,
    "?)</w>": 5039,
    "hob": 5040,
    "hile</w>": 5041,
    "broken</w>": 5042,
    "wouldn’t</w>": 5043,
    "attention</w>": 5044,
    "ion,</w>": 5045,
    "de.</w>": 5046,
    "Did</w>": 5047,
    "easily</w>": 5048,
    "off,</w>": 5049,
    "though.</w>": 5050,
    "red.</w>": 5051,
    "pissed</w>": 5052,
    "i'll</w>": 5053,
    "jobs</w>": 5054,
    "hanging</w>": 5055,
    "eyes</w>": 5056,
    "itter</w>": 5057,
    "nearly</w>": 5058,
    "yesterday</w>": 5059,
    "spl": 5060,
    "13": 5061,
    "ket": 5062,
    "drinking</w>": 5063,
    "shor": 5064,
    "won’t</w>": 5065,
    "ands</w>": 5066,
    "tin": 5067,
    "mother": 5068,
    "camer": 5069,
    "ging</w>": 5070,
    "nta,</w>": 5071,
    "class": 5072,
    "NE": 5073,
    "none</w>": 5074,
    "practic": 5075,
    "deli": 5076,
    "viol": 5077,
    "cover</w>": 5078,
    "law</w>": 5079,
    "ock</w>": 5080,
    "news</w>": 5081,
    "aver": 5082,
    "initi": 5083,
    "ated": 5084,
    "self-": 5085,
    "ale</w>": 5086,
    "LO": 5087,
    "by": 5088,
    "ority</w>": 5089,
    "yer</w>": 5090,
    "available</w>": 5091,
    "home,</w>": 5092,
    "energ": 5093,
    "media</w>": 5094,
    "schedu": 5095,
    "40": 5096,
    "stri": 5097,
    "organiz": 5098,
    "and,</w>": 5099,
    "nobody</w>": 5100,
    "poor</w>": 5101,
    "fect": 5102,
    "les.</w>": 5103,
    "you?</w>": 5104,
    "doctor</w>": 5105,
    "itten</w>": 5106,
    "request": 5107,
    "Ge": 5108,
    "relationship.</w>": 5109,
    "80": 5110,
    "out?</w>": 5111,
    "drug": 5112,
    "PC</w>": 5113,
    "Eng": 5114,
    "neighb": 5115,
    "Ga": 5116,
    "chur": 5117,
    "H</w>": 5118,
    "ann": 5119,
    "anything,</w>": 5120,
    "fav": 5121,
    "intro": 5122,
    "60</w>": 5123,
    "aut": 5124,
    "Mac": 5125,
    "mini": 5126,
    "plea": 5127,
    "watched</w>": 5128,
    "futu": 5129,
    ",\"</w>": 5130,
    "seriously</w>": 5131,
    "special</w>": 5132,
    "money.</w>": 5133,
    "hands</w>": 5134,
    "stories</w>": 5135,
    "program</w>": 5136,
    "ency</w>": 5137,
    "ring</w>": 5138,
    "female</w>": 5139,
    "stric": 5140,
    "'t.</w>": 5141,
    "I’ll</w>": 5142,
    "nic": 5143,
    "strong</w>": 5144,
    "Sor": 5145,
    "difference</w>": 5146,
    "websit": 5147,
    "option</w>": 5148,
    "learning</w>": 5149,
    "A.</w>": 5150,
    "famili": 5151,
    "project</w>": 5152,
    "clos": 5153,
    "hood</w>": 5154,
    "Will</w>": 5155,
    "flu": 5156,
    "basic</w>": 5157,
    "Sa": 5158,
    "above</w>": 5159,
    "wife": 5160,
    "itted</w>": 5161,
    "fear</w>": 5162,
    "lon": 5163,
    "pes</w>": 5164,
    "minute</w>": 5165,
    "boss</w>": 5166,
    "oh</w>": 5167,
    "ki": 5168,
    "ender</w>": 5169,
    "style</w>": 5170,
    "ous,</w>": 5171,
    "ound,</w>": 5172,
    "incredibly</w>": 5173,
    "accept</w>": 5174,
    "regi": 5175,
    "quick</w>": 5176,
    "picked</w>": 5177,
    "vic": 5178,
    "depression</w>": 5179,
    "god</w>": 5180,
    "These</w>": 5181,
    "ate,</w>": 5182,
    "gger</w>": 5183,
    "Anyway,</w>": 5184,
    "fill": 5185,
    "lock</w>": 5186,
    "ently,</w>": 5187,
    "addic": 5188,
    "60": 5189,
    "one's</w>": 5190,
    "sides</w>": 5191,
    "wrong.</w>": 5192,
    "OM": 5193,
    "Today</w>": 5194,
    "GB</w>": 5195,
    "ing/": 5196,
    "bike</w>": 5197,
    "crying</w>": 5198,
    "staying</w>": 5199,
    "at,</w>": 5200,
    "ery</w>": 5201,
    "fan": 5202,
    "tribu": 5203,
    "so.</w>": 5204,
    "laptop</w>": 5205,
    "Good</w>": 5206,
    "insur": 5207,
    "bf</w>": 5208,
    "able,</w>": 5209,
    "term</w>": 5210,
    "dogs</w>": 5211,
    "thread</w>": 5212,
    "word": 5213,
    "ow.</w>": 5214,
    "(not</w>": 5215,
    "dead</w>": 5216,
    "regular</w>": 5217,
    "stres": 5218,
    "(i</w>": 5219,
    "meeting</w>": 5220,
    "today,</w>": 5221,
    "intern": 5222,
    "em</w>": 5223,
    "sign</w>": 5224,
    "Ro": 5225,
    "finish</w>": 5226,
    "say,</w>": 5227,
    "horrible</w>": 5228,
    "key": 5229,
    "present": 5230,
    "pull</w>": 5231,
    "HA": 5232,
    "pati": 5233,
    "touch</w>": 5234,
    "While</w>": 5235,
    "countr": 5236,
    "final</w>": 5237,
    "prefer</w>": 5238,
    "notice</w>": 5239,
    "bag": 5240,
    "s'</w>": 5241,
    "grow</w>": 5242,
    "Well</w>": 5243,
    "bil": 5244,
    "itu": 5245,
    "hasn't</w>": 5246,
    "myself,</w>": 5247,
    "ani": 5248,
    "ses,</w>": 5249,
    "dream</w>": 5250,
    "Dis": 5251,
    "offici": 5252,
    "else.</w>": 5253,
    "stuff.</w>": 5254,
    "2,</w>": 5255,
    "IT": 5256,
    "character</w>": 5257,
    "fault</w>": 5258,
    "ain": 5259,
    "25</w>": 5260,
    "side.</w>": 5261,
    "affec": 5262,
    "ance,</w>": 5263,
    "ride</w>": 5264,
    "ased</w>": 5265,
    "diag": 5266,
    "chat</w>": 5267,
    "ori": 5268,
    "Tu": 5269,
    "appropri": 5270,
    "police</w>": 5271,
    "Windows</w>": 5272,
    "land</w>": 5273,
    "ak": 5274,
    "perfect</w>": 5275,
    "knowledge</w>": 5276,
    "slight": 5277,
    "join</w>": 5278,
    "return</w>": 5279,
    "good.</w>": 5280,
    "sti": 5281,
    "ction": 5282,
    "wearing</w>": 5283,
    "vent": 5284,
    "moder": 5285,
    "Sp": 5286,
    "quickly</w>": 5287,
    ",000</w>": 5288,
    "lif": 5289,
    "He's</w>": 5290,
    "fore</w>": 5291,
    "access</w>": 5292,
    "ange</w>": 5293,
    "EL": 5294,
    "inging</w>": 5295,
    "fucked</w>": 5296,
    "tual</w>": 5297,
    "iding</w>": 5298,
    "y-": 5299,
    "Last</w>": 5300,
    "ea": 5301,
    "force</w>": 5302,
    "success": 5303,
    "recommend</w>": 5304,
    "classes</w>": 5305,
    "info</w>": 5306,
    "comb": 5307,
    "friend's</w>": 5308,
    "obvious</w>": 5309,
    "advic": 5310,
    "quit</w>": 5311,
    "Nor": 5312,
    "times,</w>": 5313,
    "Well,</w>": 5314,
    "physical</w>": 5315,
    "replac": 5316,
    "players</w>": 5317,
    "caught</w>": 5318,
    "90": 5319,
    "beautiful</w>": 5320,
    "five</w>": 5321,
    "upon</w>": 5322,
    "Up": 5323,
    "nific": 5324,
    "younger</w>": 5325,
    "hair": 5326,
    "opinion</w>": 5327,
    "cheap": 5328,
    "ama</w>": 5329,
    "UC": 5330,
    "teacher</w>": 5331,
    "Of</w>": 5332,
    "Sorry</w>": 5333,
    "crit": 5334,
    "turning</w>": 5335,
    "She's</w>": 5336,
    "motiv": 5337,
    "missed</w>": 5338,
    "1/": 5339,
    "ar.</w>": 5340,
    "edit:</w>": 5341,
    "medical</w>": 5342,
    "tox": 5343,
    "ingly</w>": 5344,
    "regre": 5345,
    "OR": 5346,
    "considered</w>": 5347,
    "couldn’t</w>": 5348,
    "ence,</w>": 5349,
    "Oh</w>": 5350,
    "mix": 5351,
    "growing</w>": 5352,
    "________": 5353,
    "pra": 5354,
    "embarras": 5355,
    "forget</w>": 5356,
    "kic": 5357,
    "acted</w>": 5358,
    "involved</w>": 5359,
    "age.</w>": 5360,
    "izz": 5361,
    "electr": 5362,
    "ted.</w>": 5363,
    "gun": 5364,
    "am,</w>": 5365,
    "they’re</w>": 5366,
    "provide</w>": 5367,
    "Let": 5368,
    "ble.</w>": 5369,
    "email": 5370,
    "born</w>": 5371,
    "TV</w>": 5372,
    "UU": 5373,
    "etc</w>": 5374,
    "roommat": 5375,
    "vs</w>": 5376,
    "disappo": 5377,
    "voice</w>": 5378,
    "Hop": 5379,
    "ation?</w>": 5380,
    "response</w>": 5381,
    "prefer": 5382,
    "expensive</w>": 5383,
    "not,</w>": 5384,
    ".**</w>": 5385,
    "ant.</w>": 5386,
    "in-": 5387,
    "ecra": 5388,
    "redditors</w>": 5389,
    "half": 5390,
    "himself</w>": 5391,
    "lor": 5392,
    "one?</w>": 5393,
    "before,</w>": 5394,
    "**:</w>": 5395,
    "ar,</w>": 5396,
    "field</w>": 5397,
    "total</w>": 5398,
    "y's</w>": 5399,
    "ences</w>": 5400,
    "THE</w>": 5401,
    "joke</w>": 5402,
    "19</w>": 5403,
    "There's</w>": 5404,
    "lines</w>": 5405,
    "’</w>": 5406,
    "gs</w>": 5407,
    "did.</w>": 5408,
    "dollar": 5409,
    "ask": 5410,
    "ague</w>": 5411,
    "cold</w>": 5412,
    "brain</w>": 5413,
    "divor": 5414,
    "16</w>": 5415,
    "ass": 5416,
    "book": 5417,
    "size</w>": 5418,
    "kets</w>": 5419,
    "ES": 5420,
    "emotional</w>": 5421,
    "40</w>": 5422,
    "cheap</w>": 5423,
    "ounds</w>": 5424,
    "received</w>": 5425,
    "fing": 5426,
    "win</w>": 5427,
    "1)</w>": 5428,
    "Che": 5429,
    "right?</w>": 5430,
    "subm": 5431,
    "gaming</w>": 5432,
    "recent</w>": 5433,
    "employe": 5434,
    "normal": 5435,
    "history</w>": 5436,
    "Her": 5437,
    "les,</w>": 5438,
    "occasion": 5439,
    "lion</w>": 5440,
    "dated</w>": 5441,
    "We're</w>": 5442,
    "fellow</w>": 5443,
    "guys,</w>": 5444,
    "beginning</w>": 5445,
    "’all</w>": 5446,
    "uncomfortable</w>": 5447,
    "ign</w>": 5448,
    "lets</w>": 5449,
    "Most</w>": 5450,
    "expect": 5451,
    "aren": 5452,
    "themselves</w>": 5453,
    "pair</w>": 5454,
    "death</w>": 5455,
    "(the</w>": 5456,
    "mac": 5457,
    "weir": 5458,
    "house,</w>": 5459,
    "EN": 5460,
    "breaking</w>": 5461,
    "rout": 5462,
    "reddit.</w>": 5463,
    "fell</w>": 5464,
    "ten": 5465,
    "edit</w>": 5466,
    "choice</w>": 5467,
    "PC": 5468,
    "oooo": 5469,
    "e\"</w>": 5470,
    "ways,</w>": 5471,
    "let's</w>": 5472,
    "situation.</w>": 5473,
    "less": 5474,
    "pul": 5475,
    "y!</w>": 5476,
    "fat</w>": 5477,
    "shop</w>": 5478,
    "signific": 5479,
    "yes</w>": 5480,
    "3-": 5481,
    "Now,</w>": 5482,
    "pared</w>": 5483,
    "wise</w>": 5484,
    "Ta": 5485,
    "public": 5486,
    "Its</w>": 5487,
    "government</w>": 5488,
    "remin": 5489,
    "haven’t</w>": 5490,
    "From</w>": 5491,
    "bon": 5492,
    "else": 5493,
    "forgot</w>": 5494,
    "thread": 5495,
    "over.</w>": 5496,
    "bow": 5497,
    "decision</w>": 5498,
    "added</w>": 5499,
    "2-": 5500,
    "Sun": 5501,
    "problem.</w>": 5502,
    "argument</w>": 5503,
    "applic": 5504,
    "points</w>": 5505,
    "enty</w>": 5506,
    "essenti": 5507,
    "plus</w>": 5508,
    "dio</w>": 5509,
    "eg": 5510,
    "it!</w>": 5511,
    "holding</w>": 5512,
    "IS</w>": 5513,
    "ler</w>": 5514,
    "albu": 5515,
    "third</w>": 5516,
    "aged</w>": 5517,
    "close": 5518,
    "thing?</w>": 5519,
    "fire</w>": 5520,
    "code</w>": 5521,
    "TI": 5522,
    "particular</w>": 5523,
    "like,</w>": 5524,
    "mani": 5525,
    "frequ": 5526,
    "100%</w>": 5527,
    "sent": 5528,
    "ists</w>": 5529,
    "ying.</w>": 5530,
    "either.</w>": 5531,
    "didnt</w>": 5532,
    "sin</w>": 5533,
    "terms</w>": 5534,
    "yes,</w>": 5535,
    "data</w>": 5536,
    "showing</w>": 5537,
    "ither</w>": 5538,
    "fan</w>": 5539,
    "paper</w>": 5540,
    "sleeping</w>": 5541,
    "reasons</w>": 5542,
    "sion.</w>": 5543,
    "Dear</w>": 5544,
    "dies</w>": 5545,
    "ball": 5546,
    "paper": 5547,
    "for.</w>": 5548,
    "somehow</w>": 5549,
    "Des": 5550,
    "ically,</w>": 5551,
    "bod": 5552,
    "de,</w>": 5553,
    ")?</w>": 5554,
    "fle": 5555,
    "er's</w>": 5556,
    "meet": 5557,
    "destro": 5558,
    "room,</w>": 5559,
    "together,</w>": 5560,
    "include</w>": 5561,
    "beat</w>": 5562,
    "adul": 5563,
    "psych": 5564,
    "ings,</w>": 5565,
    "lec": 5566,
    "dama": 5567,
    "irs</w>": 5568,
    "focus</w>": 5569,
    "agu": 5570,
    "ition</w>": 5571,
    "family,</w>": 5572,
    "wro": 5573,
    "particul": 5574,
    "deserve</w>": 5575,
    "busy</w>": 5576,
    "web</w>": 5577,
    "lie</w>": 5578,
    "depend": 5579,
    "conne": 5580,
    "previous</w>": 5581,
    "began</w>": 5582,
    "”.</w>": 5583,
    "twice</w>": 5584,
    "expected</w>": 5585,
    "things,</w>": 5586,
    "roo": 5587,
    "honest</w>": 5588,
    "quality</w>": 5589,
    "den</w>": 5590,
    "pun": 5591,
    "parts</w>": 5592,
    "tar": 5593,
    "NOT</w>": 5594,
    "Hi": 5595,
    "lic": 5596,
    "aa": 5597,
    "dir": 5598,
    "showed</w>": 5599,
    "depressed</w>": 5600,
    "idi": 5601,
    "laun": 5602,
    "chick": 5603,
    "attemp": 5604,
    "nu": 5605,
    "later,</w>": 5606,
    "episo": 5607,
    "?!</w>": 5608,
    "listening</w>": 5609,
    "creep": 5610,
    "2)</w>": 5611,
    "ish</w>": 5612,
    "nor</w>": 5613,
    "bc</w>": 5614,
    "push</w>": 5615,
    "tax": 5616,
    "grew</w>": 5617,
    "there’s</w>": 5618,
    "seme": 5619,
    "videos</w>": 5620,
    "university</w>": 5621,
    "perhaps</w>": 5622,
    "ath": 5623,
    "shut</w>": 5624,
    "24</w>": 5625,
    "Lin": 5626,
    "21</w>": 5627,
    "ously,</w>": 5628,
    "genuin": 5629,
    "tries</w>": 5630,
    "eling</w>": 5631,
    "on?</w>": 5632,
    "necessar": 5633,
    "relationship": 5634,
    "ated,</w>": 5635,
    "Me</w>": 5636,
    "stick</w>": 5637,
    "pose</w>": 5638,
    "present</w>": 5639,
    "???</w>": 5640,
    "deep</w>": 5641,
    "no,</w>": 5642,
    "private</w>": 5643,
    "Face": 5644,
    "hopefully</w>": 5645,
    "conom": 5646,
    "ww": 5647,
    "Ser": 5648,
    "==": 5649,
    "season</w>": 5650,
    "g.</w>": 5651,
    "sed,</w>": 5652,
    "lead</w>": 5653,
    "game": 5654,
    "manager</w>": 5655,
    "hearing</w>": 5656,
    "somewhat</w>": 5657,
    "kno": 5658,
    "re-": 5659,
    "individ": 5660,
    "them?</w>": 5661,
    "His</w>": 5662,
    "understanding</w>": 5663,
    "mad": 5664,
    "ations.</w>": 5665,
    "here?</w>": 5666,
    "adult</w>": 5667,
    "movies</w>": 5668,
    "about.</w>": 5669,
    "ances</w>": 5670,
    "Man": 5671,
    "Canad": 5672,
    "then,</w>": 5673,
    "IT</w>": 5674,
    "CP": 5675,
    "wha": 5676,
    "bag</w>": 5677,
    "invited</w>": 5678,
    "study</w>": 5679,
    "el.</w>": 5680,
    "bey": 5681,
    "chall": 5682,
    "engine": 5683,
    "equi": 5684,
    "spac": 5685,
    "point,</w>": 5686,
    "earlier</w>": 5687,
    "suddenly</w>": 5688,
    "sequ": 5689,
    "ber.</w>": 5690,
    "ors,</w>": 5691,
    "stic": 5692,
    "teen": 5693,
    "lower</w>": 5694,
    "sat</w>": 5695,
    "RA": 5696,
    "pack": 5697,
    "ID": 5698,
    "from": 5699,
    "typic": 5700,
    "valu": 5701,
    "invest": 5702,
    "y\"</w>": 5703,
    "Google</w>": 5704,
    "biggest</w>": 5705,
    "short": 5706,
    "anger": 5707,
    "religious</w>": 5708,
    "various</w>": 5709,
    "sorr": 5710,
    "ess,</w>": 5711,
    "clus": 5712,
    "gym</w>": 5713,
    "spre": 5714,
    "greatly</w>": 5715,
    "anywhere</w>": 5716,
    "thank": 5717,
    "thy</w>": 5718,
    "views</w>": 5719,
    "gging</w>": 5720,
    "fai": 5721,
    "atively</w>": 5722,
    "event</w>": 5723,
    "done.</w>": 5724,
    "pulled</w>": 5725,
    "Cl": 5726,
    "survi": 5727,
    "easier</w>": 5728,
    "suggest</w>": 5729,
    "disgu": 5730,
    "air</w>": 5731,
    "posed</w>": 5732,
    "possible.</w>": 5733,
    "right,</w>": 5734,
    "altern": 5735,
    "effort</w>": 5736,
    "Our</w>": 5737,
    "ears</w>": 5738,
    "herself</w>": 5739,
    "series</w>": 5740,
    "fo": 5741,
    "Sou": 5742,
    "created</w>": 5743,
    "but": 5744,
    "positive</w>": 5745,
    "actions</w>": 5746,
    "smi": 5747,
    "antas": 5748,
    "right.</w>": 5749,
    "f)</w>": 5750,
    "degree</w>": 5751,
    "reasonable</w>": 5752,
    "design</w>": 5753,
    "ize</w>": 5754,
    "tware</w>": 5755,
    "energy</w>": 5756,
    "weed</w>": 5757,
    "Let</w>": 5758,
    "5-": 5759,
    "daily</w>": 5760,
    "proud</w>": 5761,
    "rup": 5762,
    "ED</w>": 5763,
    "fically</w>": 5764,
    "travel</w>": 5765,
    "diagn": 5766,
    "stress</w>": 5767,
    "bother": 5768,
    "Inter": 5769,
    "radi": 5770,
    "point.</w>": 5771,
    "Sometimes</w>": 5772,
    "jer": 5773,
    "mind": 5774,
    "reach</w>": 5775,
    "ups</w>": 5776,
    "coffee</w>": 5777,
    "down,</w>": 5778,
    "assume</w>": 5779,
    "get": 5780,
    "further</w>": 5781,
    "m)</w>": 5782,
    "ank</w>": 5783,
    "Rec": 5784,
    "christmas</w>": 5785,
    "contribu": 5786,
    "crat": 5787,
    "wegg</w>": 5788,
    "intel": 5789,
    "cum": 5790,
    "me:</w>": 5791,
    "set": 5792,
    "objec": 5793,
    "built</w>": 5794,
    "written</w>": 5795,
    "EV": 5796,
    "Christmas</w>": 5797,
    "sad": 5798,
    "kitch": 5799,
    "guilty</w>": 5800,
    "proce": 5801,
    "Quest": 5802,
    "will": 5803,
    "rude</w>": 5804,
    "weren't</w>": 5805,
    "distance</w>": 5806,
    "lying</w>": 5807,
    "Satur": 5808,
    "Let's</w>": 5809,
    "clothes</w>": 5810,
    "ising</w>": 5811,
    "update</w>": 5812,
    "member</w>": 5813,
    "woke</w>": 5814,
    "becoming</w>": 5815,
    "catch</w>": 5816,
    "links</w>": 5817,
    "setting</w>": 5818,
    "ense</w>": 5819,
    "spor": 5820,
    "research</w>": 5821,
    "strong": 5822,
    "beer</w>": 5823,
    "somebody</w>": 5824,
    "money,</w>": 5825,
    "Uni": 5826,
    "IL": 5827,
    "tip": 5828,
    "game,</w>": 5829,
    "!)</w>": 5830,
    "consist": 5831,
    "bad.</w>": 5832,
    "caused</w>": 5833,
    "AC": 5834,
    "lunch</w>": 5835,
    "onlin": 5836,
    "pack</w>": 5837,
    "dark</w>": 5838,
    "Lo": 5839,
    "Pl": 5840,
    ".com</w>": 5841,
    "treat</w>": 5842,
    "beyond</w>": 5843,
    "Mic": 5844,
    "prin": 5845,
    "dropped</w>": 5846,
    "story.</w>": 5847,
    "members</w>": 5848,
    "auth": 5849,
    "craz": 5850,
    "songs</w>": 5851,
    "popular</w>": 5852,
    "messages</w>": 5853,
    ".99</w>": 5854,
    "Ste": 5855,
    "standing</w>": 5856,
    "blood</w>": 5857,
    "genuinely</w>": 5858,
    "wrote</w>": 5859,
    "respect": 5860,
    "background</w>": 5861,
    "think?</w>": 5862,
    "Mi": 5863,
    "tions.</w>": 5864,
    "Euro": 5865,
    "confused</w>": 5866,
    "throw": 5867,
    "language</w>": 5868,
    "discover": 5869,
    "Pla": 5870,
    "dly</w>": 5871,
    "days,</w>": 5872,
    "guit": 5873,
    "ana</w>": 5874,
    "TF": 5875,
    "ce": 5876,
    "que": 5877,
    "elling</w>": 5878,
    "asle": 5879,
    "mail</w>": 5880,
    "happening</w>": 5881,
    "cry</w>": 5882,
    "normally</w>": 5883,
    "200</w>": 5884,
    "annoying</w>": 5885,
    "content</w>": 5886,
    "eat": 5887,
    "copy</w>": 5888,
    "able": 5889,
    "sion,</w>": 5890,
    "slightly</w>": 5891,
    "personally</w>": 5892,
    "average</w>": 5893,
    "awesom": 5894,
    "An</w>": 5895,
    "track</w>": 5896,
    "advice.</w>": 5897,
    "sexu": 5898,
    "neighbor": 5899,
    "forced</w>": 5900,
    ":(</w>": 5901,
    "mic": 5902,
    "monit": 5903,
    "Ke": 5904,
    "es/": 5905,
    "bus</w>": 5906,
    "everything.</w>": 5907,
    "around.</w>": 5908,
    "friendship</w>": 5909,
    "and/": 5910,
    "ful,</w>": 5911,
    "Dr": 5912,
    "higher</w>": 5913,
    "spot</w>": 5914,
    "too,</w>": 5915,
    "AA": 5916,
    "example</w>": 5917,
    "4.</w>": 5918,
    "cute</w>": 5919,
    "while,</w>": 5920,
    "rid</w>": 5921,
    "attac": 5922,
    "world.</w>": 5923,
    "managed</w>": 5924,
    "begin</w>": 5925,
    "opping</w>": 5926,
    "17</w>": 5927,
    "pizz": 5928,
    "source</w>": 5929,
    "ges</w>": 5930,
    "writ": 5931,
    "ners</w>": 5932,
    "zer": 5933,
    "provid": 5934,
    "wedd": 5935,
    "course,</w>": 5936,
    "abil": 5937,
    "ja": 5938,
    "ext</w>": 5939,
    "active</w>": 5940,
    "eye</w>": 5941,
    "cit": 5942,
    "hospital</w>": 5943,
    "students</w>": 5944,
    "dealing</w>": 5945,
    "you'll</w>": 5946,
    "ote</w>": 5947,
    "science</w>": 5948,
    "cand": 5949,
    "une</w>": 5950,
    "Got</w>": 5951,
    "buc": 5952,
    "ine": 5953,
    "today": 5954,
    "we’re</w>": 5955,
    "changing</w>": 5956,
    "thats</w>": 5957,
    "stayed</w>": 5958,
    "treat": 5959,
    "switch</w>": 5960,
    "throughout</w>": 5961,
    "heavy</w>": 5962,
    "bathroom</w>": 5963,
    "empt</w>": 5964,
    "updat": 5965,
    "Newegg</w>": 5966,
    "tonigh": 5967,
    "be,</w>": 5968,
    "nerv": 5969,
    "liber": 5970,
    "ines</w>": 5971,
    "alone.</w>": 5972,
    "glad</w>": 5973,
    "training</w>": 5974,
    "range</w>": 5975,
    "good,</w>": 5976,
    "we'll</w>": 5977,
    "hurts</w>": 5978,
    "you'd</w>": 5979,
    "explained</w>": 5980,
    "ore": 5981,
    "impres": 5982,
    "also,</w>": 5983,
    "ney</w>": 5984,
    "econom": 5985,
    "expl": 5986,
    "eral</w>": 5987,
    "cov": 5988,
    "driver": 5989,
    "compli": 5990,
    "annoyed</w>": 5991,
    "ank": 5992,
    "log</w>": 5993,
    "own,</w>": 5994,
    "conven": 5995,
    "install</w>": 5996,
    "Or": 5997,
    "ten</w>": 5998,
    "Mus": 5999,
    "Joh": 6000,
    "5.</w>": 6001,
    "GH": 6002,
    "rules</w>": 6003,
    "backgr": 6004,
    "IS": 6005,
    "LY</w>": 6006,
    "grate": 6007,
    "planned</w>": 6008,
    "g,</w>": 6009,
    "software</w>": 6010,
    "kar": 6011,
    "gotta</w>": 6012,
    "piec": 6013,
    "22</w>": 6014,
    "About</w>": 6015,
    "bill": 6016,
    "start": 6017,
    "block</w>": 6018,
    "sat": 6019,
    "mail": 6020,
    "Wat": 6021,
    "lady</w>": 6022,
    "park</w>": 6023,
    "ner.</w>": 6024,
    "sav": 6025,
    "experienced</w>": 6026,
    "fine.</w>": 6027,
    "speed</w>": 6028,
    "soli": 6029,
    "cousin</w>": 6030,
    "lot.</w>": 6031,
    "What": 6032,
    "mm": 6033,
    "cru": 6034,
    "suggestions?</w>": 6035,
    "details</w>": 6036,
    "apart</w>": 6037,
    "They": 6038,
    "example,</w>": 6039,
    "bility</w>": 6040,
    "that?</w>": 6041,
    "ant,</w>": 6042,
    "Best</w>": 6043,
    "****": 6044,
    "held</w>": 6045,
    "employ": 6046,
    "ounc": 6047,
    "months,</w>": 6048,
    "limited</w>": 6049,
    "confir": 6050,
    "sy</w>": 6051,
    "transf": 6052,
    "selling</w>": 6053,
    "note</w>": 6054,
    "bitch</w>": 6055,
    "skin": 6056,
    "charge</w>": 6057,
    "happened.</w>": 6058,
    "old.</w>": 6059,
    "who's</w>": 6060,
    "es)</w>": 6061,
    "opportunity</w>": 6062,
    "Na": 6063,
    "AD": 6064,
    "termin": 6065,
    "Oka": 6066,
    "English</w>": 6067,
    "YO": 6068,
    "hh": 6069,
    "es:</w>": 6070,
    "plat": 6071,
    "with,</w>": 6072,
    "age,</w>": 6073,
    "items</w>": 6074,
    "month.</w>": 6075,
    "ler": 6076,
    "sucks</w>": 6077,
    "regarding</w>": 6078,
    "bringing</w>": 6079,
    "happy.</w>": 6080,
    "Black</w>": 6081,
    "ately,</w>": 6082,
    "was.</w>": 6083,
    "tic</w>": 6084,
    "weeks.</w>": 6085,
    "image</w>": 6086,
    "oper": 6087,
    "responsible</w>": 6088,
    "viron": 6089,
    "drug</w>": 6090,
    "imp": 6091,
    "y’all</w>": 6092,
    "Dri": 6093,
    "six</w>": 6094,
    "ogni": 6095,
    "bother</w>": 6096,
    "opened</w>": 6097,
    "great.</w>": 6098,
    "financial</w>": 6099,
    "ds.</w>": 6100,
    "texted</w>": 6101,
    "ric": 6102,
    "dr</w>": 6103,
    "killed</w>": 6104,
    "usual</w>": 6105,
    "shop": 6106,
    "discussion</w>": 6107,
    "ancy</w>": 6108,
    "treated</w>": 6109,
    "directly</w>": 6110,
    "gain</w>": 6111,
    "recogni": 6112,
    "doubt</w>": 6113,
    "14</w>": 6114,
    "ption</w>": 6115,
    "contr": 6116,
    "exha": 6117,
    "I’d</w>": 6118,
    "gun</w>": 6119,
    "old,</w>": 6120,
    "perfect": 6121,
    "say": 6122,
    "dition</w>": 6123,
    "dick</w>": 6124,
    "batt": 6125,
    "invite</w>": 6126,
    "nov": 6127,
    "self,</w>": 6128,
    "away,</w>": 6129,
    "miles</w>": 6130,
    "relationship,</w>": 6131,
    "deep": 6132,
    "killing</w>": 6133,
    "Hell": 6134,
    "13</w>": 6135,
    "person,</w>": 6136,
    "expres": 6137,
    "specifically</w>": 6138,
    "faul": 6139,
    "free": 6140,
    "insan": 6141,
    "SO</w>": 6142,
    "help,</w>": 6143,
    "yet.</w>": 6144,
    "gas</w>": 6145,
    "spoil": 6146,
    "negative</w>": 6147,
    "dge</w>": 6148,
    "Jes": 6149,
    "ian": 6150,
    "achi": 6151,
    "ker": 6152,
    "IR": 6153,
    "pract": 6154,
    "much,</w>": 6155,
    "goal</w>": 6156,
    "Wa": 6157,
    "nights</w>": 6158,
    "Car": 6159,
    "adop": 6160,
    "incid": 6161,
    "sensit": 6162,
    "awkward</w>": 6163,
    "1,</w>": 6164,
    "ignore</w>": 6165,
    "ally": 6166,
    "tail</w>": 6167,
    "political</w>": 6168,
    "TL;DR": 6169,
    "VE</w>": 6170,
    "nd</w>": 6171,
    "iness</w>": 6172,
    "changes</w>": 6173,
    "photos</w>": 6174,
    "and/or</w>": 6175,
    "By</w>": 6176,
    "al?</w>": 6177,
    "Sy": 6178,
    "grocer": 6179,
    "advanc": 6180,
    "Amaz": 6181,
    "physically</w>": 6182,
    "regular": 6183,
    "ations,</w>": 6184,
    "ski": 6185,
    "Fuck</w>": 6186,
    "ahead</w>": 6187,
    "1-": 6188,
    "unfortun": 6189,
    "featu": 6190,
    "fianc": 6191,
    "The": 6192,
    "checked</w>": 6193,
    "stream</w>": 6194,
    "arm</w>": 6195,
    "signed</w>": 6196,
    "blame</w>": 6197,
    "career</w>": 6198,
    "excuse</w>": 6199,
    "particularly</w>": 6200,
    "rent": 6201,
    "onic</w>": 6202,
    "ial</w>": 6203,
    "(I'm</w>": 6204,
    "slowly</w>": 6205,
    "apologize</w>": 6206,
    "slow</w>": 6207,
    "materi": 6208,
    "hers</w>": 6209,
    "count</w>": 6210,
    "pass": 6211,
    "expecting</w>": 6212,
    "solution</w>": 6213,
    "HD": 6214,
    "man,</w>": 6215,
    "while.</w>": 6216,
    "consider": 6217,
    "value</w>": 6218,
    "Was</w>": 6219,
    "train</w>": 6220,
    "waste</w>": 6221,
    "feet</w>": 6222,
    "abor": 6223,
    "Her</w>": 6224,
    "environ": 6225,
    "like.</w>": 6226,
    "mission</w>": 6227,
    "admit</w>": 6228,
    "correct</w>": 6229,
    "band</w>": 6230,
    "roll</w>": 6231,
    "mast": 6232,
    "ce,</w>": 6233,
    "come.</w>": 6234,
    "YOU</w>": 6235,
    "suggested</w>": 6236,
    "insul": 6237,
    "flic": 6238,
    "threat": 6239,
    "pleas": 6240,
    "FF": 6241,
    "weap": 6242,
    "street</w>": 6243,
    "relationships</w>": 6244,
    "Seri": 6245,
    "ing!</w>": 6246,
    "insurance</w>": 6247,
    "speaking</w>": 6248,
    "aggres": 6249,
    "sending</w>": 6250,
    "evid": 6251,
    "arm": 6252,
    "jeal": 6253,
    "ber,</w>": 6254,
    "power": 6255,
    "?”</w>": 6256,
    "hole</w>": 6257,
    "facebook</w>": 6258,
    "b.</w>": 6259,
    "lately</w>": 6260,
    "split</w>": 6261,
    "attempt</w>": 6262,
    "mobi": 6263,
    "friendly</w>": 6264,
    "man.</w>": 6265,
    "relev": 6266,
    "TS": 6267,
    "period</w>": 6268,
    "TO</w>": 6269,
    "professional</w>": 6270,
    "co-": 6271,
    "fiel": 6272,
    "experiences</w>": 6273,
    "autom": 6274,
    "foot": 6275,
    "Cr": 6276,
    "We've</w>": 6277,
    "download": 6278,
    "iv": 6279,
    "):</w>": 6280,
    "market</w>": 6281,
    "Da": 6282,
    "consci": 6283,
    "desper": 6284,
    "accident": 6285,
    "luck</w>": 6286,
    "guys.</w>": 6287,
    "wrong,</w>": 6288,
    "insist": 6289,
    "ength</w>": 6290,
    "als.</w>": 6291,
    "ham": 6292,
    "perspec": 6293,
    "dead": 6294,
    "sweet</w>": 6295,
    "ed)</w>": 6296,
    "lol": 6297,
    "something,</w>": 6298,
    "HH": 6299,
    "opinions</w>": 6300,
    "exhaust": 6301,
    "loud</w>": 6302,
    "IC": 6303,
    "sla": 6304,
    "bigger</w>": 6305,
    "plays</w>": 6306,
    "pet</w>": 6307,
    "shif": 6308,
    "car.</w>": 6309,
    "twee": 6310,
    "UP": 6311,
    "DR</w>": 6312,
    "suck</w>": 6313,
    "Ju": 6314,
    "70": 6315,
    "cust": 6316,
    "i’d</w>": 6317,
    "dry</w>": 6318,
    "flir": 6319,
    "woo": 6320,
    "Someone</w>": 6321,
    "later.</w>": 6322,
    "popul": 6323,
    "day?</w>": 6324,
    "anyway.</w>": 6325,
    "cards</w>": 6326,
    "red,</w>": 6327,
    "remember": 6328,
    "polic": 6329,
    "alread": 6330,
    "respond</w>": 6331,
    "bottom</w>": 6332,
    "vacation</w>": 6333,
    "round</w>": 6334,
    "concerned</w>": 6335,
    "plenty</w>": 6336,
    "click</w>": 6337,
    "pric": 6338,
    "ley</w>": 6339,
    "head.</w>": 6340,
    "rejec": 6341,
    "fore": 6342,
    "guy,</w>": 6343,
    "google</w>": 6344,
    "dude</w>": 6345,
    "shoc": 6346,
    "appropriate</w>": 6347,
    "random": 6348,
    "Jap": 6349,
    "fill</w>": 6350,
    "struggling</w>": 6351,
    "everyday</w>": 6352,
    "hol</w>": 6353,
    "Two</w>": 6354,
    "potential</w>": 6355,
    "brother": 6356,
    "el,</w>": 6357,
    "side": 6358,
    "exp": 6359,
    "options</w>": 6360,
    "re?</w>": 6361,
    "ower</w>": 6362,
    "nothing.</w>": 6363,
    "mentally</w>": 6364,
    "3)</w>": 6365,
    "gged</w>": 6366,
    "mean,</w>": 6367,
    "ultim": 6368,
    "encour": 6369,
    "teach</w>": 6370,
    "camp": 6371,
    "bel": 6372,
    "neither</w>": 6373,
    "justi": 6374,
    "$5": 6375,
    "says,</w>": 6376,
    "friendshi": 6377,
    "schedule</w>": 6378,
    "corpor": 6379,
    "small": 6380,
    "evol": 6381,
    "enough.</w>": 6382,
    "Chin": 6383,
    "OS</w>": 6384,
    "other,</w>": 6385,
    "trade</w>": 6386,
    "ors.</w>": 6387,
    "Once</w>": 6388,
    "jun": 6389,
    "Edit</w>": 6390,
    "chest": 6391,
    "ing:</w>": 6392,
    "convinc": 6393,
    "SS": 6394,
    "nah</w>": 6395,
    "go,</w>": 6396,
    "no.</w>": 6397,
    "uu": 6398,
    "closer</w>": 6399,
    "Could</w>": 6400,
    "wall</w>": 6401,
    "floor</w>": 6402,
    "Str": 6403,
    "en?</w>": 6404,
    "reply</w>": 6405,
    "rough</w>": 6406,
    "security</w>": 6407,
    "sources</w>": 6408,
    "'.</w>": 6409,
    "ition": 6410,
    "Gir": 6411,
    "sharing</w>": 6412,
    "tal</w>": 6413,
    "et.</w>": 6414,
    "college.</w>": 6415,
    "Day</w>": 6416,
    "AND</w>": 6417,
    "as,</w>": 6418,
    "result</w>": 6419,
    "are.</w>": 6420,
    "essor</w>": 6421,
    "batter": 6422,
    "atic</w>": 6423,
    "address</w>": 6424,
    "they've</w>": 6425,
    "falling</w>": 6426,
    "mode": 6427,
    "Right</w>": 6428,
    "have.</w>": 6429,
    "ty.</w>": 6430,
    "emotionally</w>": 6431,
    "ya</w>": 6432,
    "metho": 6433,
    "la</w>": 6434,
    "rela": 6435,
    "shou": 6436,
    "advant": 6437,
    "this:</w>": 6438,
    "behavior</w>": 6439,
    "standard</w>": 6440,
    "awful</w>": 6441,
    "anyway,</w>": 6442,
    "relatively</w>": 6443,
    "ps": 6444,
    "ware</w>": 6445,
    "proper</w>": 6446,
    "stuff,</w>": 6447,
    "ing)</w>": 6448,
    "download</w>": 6449,
    "sites</w>": 6450,
    "zing</w>": 6451,
    "pret": 6452,
    "chem": 6453,
    "loss</w>": 6454,
    "up?</w>": 6455,
    "ior</w>": 6456,
    "ired</w>": 6457,
    "dumb</w>": 6458,
    "ppy</w>": 6459,
    "practice</w>": 6460,
    "double</w>": 6461,
    "gram": 6462,
    "damage</w>": 6463,
    "end.</w>": 6464,
    "\"?</w>": 6465,
    "where.</w>": 6466,
    "report</w>": 6467,
    "fake</w>": 6468,
    "Happ": 6469,
    "toxic</w>": 6470,
    "interview</w>": 6471,
    "fighting</w>": 6472,
    "e...</w>": 6473,
    "mind.</w>": 6474,
    "names</w>": 6475,
    "3r": 6476,
    "build": 6477,
    "therapy</w>": 6478,
    "Reddit.</w>": 6479,
    "walks</w>": 6480,
    "ames</w>": 6481,
    "Is": 6482,
    "Bar": 6483,
    "certain": 6484,
    "shared</w>": 6485,
    "roll": 6486,
    "college,</w>": 6487,
    "lett": 6488,
    "es!</w>": 6489,
    "match</w>": 6490,
    "swi": 6491,
    "kids.</w>": 6492,
    "besides</w>": 6493,
    "strange</w>": 6494,
    "strang": 6495,
    "guy.</w>": 6496,
    "advance</w>": 6497,
    "$3": 6498,
    "failed</w>": 6499,
    "phone.</w>": 6500,
    "mainly</w>": 6501,
    "shel": 6502,
    "story,</w>": 6503,
    "uck": 6504,
    "oblig": 6505,
    "ants</w>": 6506,
    "function": 6507,
    "tl;dr": 6508,
    "ecraft</w>": 6509,
    "unable</w>": 6510,
    "purpo": 6511,
    "sele": 6512,
    "raised</w>": 6513,
    "x,</w>": 6514,
    "throwing</w>": 6515,
    "als,</w>": 6516,
    "risk</w>": 6517,
    "picking</w>": 6518,
    "As": 6519,
    "D.</w>": 6520,
    "machine</w>": 6521,
    "he'd</w>": 6522,
    "church</w>": 6523,
    "fantas": 6524,
    "camera</w>": 6525,
    "wonderful</w>": 6526,
    "blue</w>": 6527,
    "tube</w>": 6528,
    "ony</w>": 6529,
    "ts": 6530,
    "dollars</w>": 6531,
    "connect</w>": 6532,
    "wont</w>": 6533,
    "cook</w>": 6534,
    "cutting</w>": 6535,
    "constant</w>": 6536,
    "suicid": 6537,
    "majority</w>": 6538,
    "Hon": 6539,
    "ah</w>": 6540,
    "Yes,</w>": 6541,
    "thous": 6542,
    "urs": 6543,
    "first,</w>": 6544,
    "upse": 6545,
    "Doc": 6546,
    "yo</w>": 6547,
    "laptop": 6548,
    "seconds</w>": 6549,
    "amer": 6550,
    "ek</w>": 6551,
    "draw</w>": 6552,
    "ak</w>": 6553,
    "Tur": 6554,
    "port</w>": 6555,
    "porn</w>": 6556,
    "entirely</w>": 6557,
    "Everything</w>": 6558,
    "roc": 6559,
    "Cor": 6560,
    "ped": 6561,
    "WH": 6562,
    "3,</w>": 6563,
    "ideas?</w>": 6564,
    "led.</w>": 6565,
    "followed</w>": 6566,
    "separate</w>": 6567,
    "More</w>": 6568,
    "AT</w>": 6569,
    "ember</w>": 6570,
    "SC": 6571,
    "window</w>": 6572,
    "fuck": 6573,
    "craft</w>": 6574,
    "offic": 6575,
    "(my</w>": 6576,
    "regret</w>": 6577,
    "side,</w>": 6578,
    "hund": 6579,
    "Indi": 6580,
    "forman": 6581,
    "less.</w>": 6582,
    "abusive</w>": 6583,
    "ital</w>": 6584,
    "over,</w>": 6585,
    "ago": 6586,
    "summ": 6587,
    "Cur": 6588,
    "Andro": 6589,
    "filled</w>": 6590,
    "hadn't</w>": 6591,
    "phones</w>": 6592,
    "appoint": 6593,
    "ds,</w>": 6594,
    "Vide": 6595,
    "certainly</w>": 6596,
    "alcohol</w>": 6597,
    "guys": 6598,
    "ine.</w>": 6599,
    "enter</w>": 6600,
    "eds</w>": 6601,
    "anyway</w>": 6602,
    "ble,</w>": 6603,
    "ID</w>": 6604,
    "parking</w>": 6605,
    "results</w>": 6606,
    "tour": 6607,
    "entit": 6608,
    "continued</w>": 6609,
    "enter": 6610,
    "harder</w>": 6611,
    "wall": 6612,
    "searching</w>": 6613,
    "record</w>": 6614,
    "photo</w>": 6615,
    "jour": 6616,
    "DV": 6617,
    "EE": 6618,
    "surprised</w>": 6619,
    "tf</w>": 6620,
    "files</w>": 6621,
    "confron": 6622,
    "FUC": 6623,
    "explan": 6624,
    "essentially</w>": 6625,
    "confus": 6626,
    "mess</w>": 6627,
    "accepted</w>": 6628,
    "bank</w>": 6629,
    "Gen": 6630,
    "games.</w>": 6631,
    "rying</w>": 6632,
    "remove</w>": 6633,
    "base": 6634,
    "ders</w>": 6635,
    "Mc": 6636,
    "bit.</w>": 6637,
    "nur": 6638,
    "ner,</w>": 6639,
    "pin": 6640,
    "selfish</w>": 6641,
    "yelling</w>": 6642,
    "Thanks.</w>": 6643,
    "events</w>": 6644,
    "religion</w>": 6645,
    "episode</w>": 6646,
    "leaves</w>": 6647,
    "primar": 6648,
    "subreddit": 6649,
    "fine,</w>": 6650,
    "was,</w>": 6651,
    "saved</w>": 6652,
    "exerc": 6653,
    "wards</w>": 6654,
    "addition": 6655,
    "games,</w>": 6656,
    "hic": 6657,
    "smell</w>": 6658,
    "aunt</w>": 6659,
    "trust": 6660,
    "GB": 6661,
    "wit": 6662,
    "refused</w>": 6663,
    "brand</w>": 6664,
    "IAm": 6665,
    "ently.</w>": 6666,
    "to-": 6667,
    "Cra": 6668,
    "perc": 6669,
    "pursu": 6670,
    "sky": 6671,
    "shouldn’t</w>": 6672,
    "Wal": 6673,
    "vacc": 6674,
    "place,</w>": 6675,
    "identi": 6676,
    "RO": 6677,
    "pressure</w>": 6678,
    "Phone</w>": 6679,
    "ram": 6680,
    "studying</w>": 6681,
    "pics</w>": 6682,
    "empty</w>": 6683,
    "Hello</w>": 6684,
    "grown</w>": 6685,
    "Dec": 6686,
    "cleaning</w>": 6687,
    "1st</w>": 6688,
    "heart": 6689,
    "first.</w>": 6690,
    "26": 6691,
    "acy</w>": 6692,
    "cousin": 6693,
    "rate</w>": 6694,
    "scienti": 6695,
    "Time</w>": 6696,
    "(in</w>": 6697,
    "toi": 6698,
    "e).</w>": 6699,
    "screen": 6700,
    "sob": 6701,
    "kick</w>": 6702,
    "vision</w>": 6703,
    "installed</w>": 6704,
    "exact</w>": 6705,
    "film</w>": 6706,
    "pregnant</w>": 6707,
    "difficul": 6708,
    "foot</w>": 6709,
    "lou": 6710,
    "ads</w>": 6711,
    "chose</w>": 6712,
    "Ho": 6713,
    "ax": 6714,
    "sym": 6715,
    "inted</w>": 6716,
    "use.</w>": 6717,
    "belief": 6718,
    "memory</w>": 6719,
    "quar": 6720,
    "pper</w>": 6721,
    "work?</w>": 6722,
    "dig": 6723,
    "first": 6724,
    "hey</w>": 6725,
    "particip": 6726,
    "windows</w>": 6727,
    "aling</w>": 6728,
    "ridiculous</w>": 6729,
    "forever</w>": 6730,
    "crap</w>": 6731,
    "4-": 6732,
    "hours.</w>": 6733,
    "pe.</w>": 6734,
    "ternal</w>": 6735,
    "Everyone</w>": 6736,
    "ries</w>": 6737,
    "owner</w>": 6738,
    "Ra": 6739,
    "cash</w>": 6740,
    "smart</w>": 6741,
    "scene</w>": 6742,
    "ths</w>": 6743,
    "(as</w>": 6744,
    "locked</w>": 6745,
    "bound": 6746,
    "much": 6747,
    "Coo": 6748,
    "tee": 6749,
    "surger": 6750,
    "crush</w>": 6751,
    "left.</w>": 6752,
    "train": 6753,
    "progres": 6754,
    "ves.</w>": 6755,
    "ing\"</w>": 6756,
    "NY": 6757,
    "wing</w>": 6758,
    "tv</w>": 6759,
    "helps</w>": 6760,
    "Though": 6761,
    "Au": 6762,
    "blu": 6763,
    "parents.</w>": 6764,
    "wra": 6765,
    "intellig": 6766,
    "lucky</w>": 6767,
    "shit": 6768,
    "Before</w>": 6769,
    "way?</w>": 6770,
    "chest</w>": 6771,
    "letter</w>": 6772,
    "yeah</w>": 6773,
    "quiet</w>": 6774,
    "Obvi": 6775,
    "characters</w>": 6776,
    "performan": 6777,
    "hung</w>": 6778,
    "milit": 6779,
    "subscri": 6780,
    "grandma</w>": 6781,
    "Hal": 6782,
    "discovered</w>": 6783,
    "Love</w>": 6784,
    "OR</w>": 6785,
    "Only</w>": 6786,
    "Unfortun": 6787,
    "libr": 6788,
    "syn": 6789,
    "girl,</w>": 6790,
    "funn": 6791,
    "restaurant</w>": 6792,
    "et,</w>": 6793,
    "staf": 6794,
    "ary.</w>": 6795,
    "ticket</w>": 6796,
    "accor": 6797,
    "kem": 6798,
    "rett": 6799,
    "docu": 6800,
    "bottle</w>": 6801,
    "threw</w>": 6802,
    "interne": 6803,
    "asshole.</w>": 6804,
    "ordered</w>": 6805,
    "secret</w>": 6806,
    "J</w>": 6807,
    "topic</w>": 6808,
    "II</w>": 6809,
    "question.</w>": 6810,
    "carry</w>": 6811,
    "satis": 6812,
    "clim": 6813,
    "replace</w>": 6814,
    "mouth</w>": 6815,
    "yeah,</w>": 6816,
    "apply</w>": 6817,
    "flat</w>": 6818,
    "purchase</w>": 6819,
    "whel": 6820,
    "lu": 6821,
    "IM": 6822,
    "Yea": 6823,
    "avi": 6824,
    "of.</w>": 6825,
    "jump</w>": 6826,
    "grab": 6827,
    "f,</w>": 6828,
    "closed</w>": 6829,
    "addres": 6830,
    "tough</w>": 6831,
    "kitchen</w>": 6832,
    "imagin": 6833,
    "sees</w>": 6834,
    "War": 6835,
    "Nothing</w>": 6836,
    "bill</w>": 6837,
    "s),</w>": 6838,
    "car,</w>": 6839,
    "post.</w>": 6840,
    "dele": 6841,
    "jac": 6842,
    "Ger": 6843,
    "ene": 6844,
    "skin</w>": 6845,
    "meas": 6846,
    "mod": 6847,
    "moun": 6848,
    ".S.</w>": 6849,
    "ge?</w>": 6850,
    "recover": 6851,
    "Res": 6852,
    "attracted</w>": 6853,
    "EDIT</w>": 6854,
    "phe": 6855,
    "drugs</w>": 6856,
    "attack</w>": 6857,
    "alcohol": 6858,
    "Facebook</w>": 6859,
    "green</w>": 6860,
    "sus</w>": 6861,
    "pop</w>": 6862,
    "solid</w>": 6863,
    "nel</w>": 6864,
    "request</w>": 6865,
    "femal": 6866,
    "acts</w>": 6867,
    "volun": 6868,
    "improve</w>": 6869,
    "even": 6870,
    "loving</w>": 6871,
    "runs</w>": 6872,
    "childhood</w>": 6873,
    "girl.</w>": 6874,
    "doesnt</w>": 6875,
    "anti-": 6876,
    "Cre": 6877,
    "moo": 6878,
    "ine,</w>": 6879,
    "laws</w>": 6880,
    "necessary</w>": 6881,
    "0.": 6882,
    "Life</w>": 6883,
    "p?</w>": 6884,
    "](": 6885,
    "pect</w>": 6886,
    "afterno": 6887,
    "sty</w>": 6888,
    "(for</w>": 6889,
    "lbs</w>": 6890,
    "$4": 6891,
    "discuss</w>": 6892,
    "pre-": 6893,
    "parti": 6894,
    "flow": 6895,
    "Pri": 6896,
    "best": 6897,
    "f.</w>": 6898,
    "point": 6899,
    "connection</w>": 6900,
    "rest": 6901,
    "PS</w>": 6902,
    "absol": 6903,
    "Je": 6904,
    "attractive</w>": 6905,
    "diet</w>": 6906,
    "marriage</w>": 6907,
    "there?</w>": 6908,
    "**EDIT": 6909,
    "poc": 6910,
    "cast</w>": 6911,
    "and.</w>": 6912,
    "itself</w>": 6913,
    "bru": 6914,
    "instruc": 6915,
    "anal": 6916,
    "industr": 6917,
    "adver": 6918,
    "HD</w>": 6919,
    "tickets</w>": 6920,
    "button</w>": 6921,
    "think": 6922,
    "effect</w>": 6923,
    "pe,</w>": 6924,
    "$</w>": 6925,
    "fly</w>": 6926,
    "others.</w>": 6927,
    "2nd</w>": 6928,
    "meaning</w>": 6929,
    "decl": 6930,
    "help!</w>": 6931,
    "La": 6932,
    "mechan": 6933,
    "Ask</w>": 6934,
    "perfectly</w>": 6935,
    "ading</w>": 6936,
    "lol</w>": 6937,
    "natural</w>": 6938,
    "Vi": 6939,
    "RI": 6940,
    "texts</w>": 6941,
    "lock": 6942,
    "checking</w>": 6943,
    "million</w>": 6944,
    "causing</w>": 6945,
    "laugh</w>": 6946,
    "ano": 6947,
    "morning.</w>": 6948,
    "promise</w>": 6949,
    "Har": 6950,
    "Net": 6951,
    "ym": 6952,
    "tive.</w>": 6953,
    "rema": 6954,
    "oil</w>": 6955,
    "clari": 6956,
    "yet,</w>": 6957,
    "math</w>": 6958,
    "ican</w>": 6959,
    "grab</w>": 6960,
    "everybody</w>": 6961,
    "phil": 6962,
    "b,</w>": 6963,
    "traf": 6964,
    "influ": 6965,
    "tion?</w>": 6966,
    "kicked</w>": 6967,
    "guid": 6968,
    "parents,</w>": 6969,
    "assuming</w>": 6970,
    "graduated</w>": 6971,
    "welcome</w>": 6972,
    "subject</w>": 6973,
    "ensive</w>": 6974,
    "otherwise</w>": 6975,
    "shoot</w>": 6976,
    "i’ll</w>": 6977,
    "aren’t</w>": 6978,
    "oph": 6979,
    "Gi": 6980,
    "mutual</w>": 6981,
    "3rd</w>": 6982,
    "ombi": 6983,
    "taste</w>": 6984,
    "IN</w>": 6985,
    "aries</w>": 6986,
    "cros": 6987,
    "traum": 6988,
    "res.</w>": 6989,
    "massive</w>": 6990,
    "Port": 6991,
    "Another</w>": 6992,
    "co</w>": 6993,
    "sight</w>": 6994,
    "sold</w>": 6995,
    "cats</w>": 6996,
    "better,</w>": 6997,
    "name": 6998,
    "---</w>": 6999,
    "talks</w>": 7000,
    "tax</w>": 7001,
    "ies.</w>": 7002,
    "conver": 7003,
    "uti": 7004,
    "introduc": 7005,
    "club</w>": 7006,
    "refuse</w>": 7007,
    "row": 7008,
    "ents.</w>": 7009,
    "tl;dr</w>": 7010,
    "atives</w>": 7011,
    "hand,</w>": 7012,
    "shirt</w>": 7013,
    "aging</w>": 7014,
    "shift</w>": 7015,
    "antic</w>": 7016,
    "approach</w>": 7017,
    "issues.</w>": 7018,
    "grow": 7019,
    "favour": 7020,
    "answers</w>": 7021,
    "enjoyed</w>": 7022,
    "rough": 7023,
    "e.": 7024,
    "OS": 7025,
    "advice?</w>": 7026,
    "can.</w>": 7027,
    "raise</w>": 7028,
    "scrat": 7029,
    "human": 7030,
    "Im": 7031,
    "god": 7032,
    "advantage</w>": 7033,
    "row</w>": 7034,
    "manage</w>": 7035,
    "rarely</w>": 7036,
    "edic": 7037,
    "swe": 7038,
    "cars</w>": 7039,
    "Steam</w>": 7040,
    "spee": 7041,
    "ON</w>": 7042,
    "everyone.</w>": 7043,
    "\"i</w>": 7044,
    "x.</w>": 7045,
    "opinion": 7046,
    "father": 7047,
    "Fu": 7048,
    "controll": 7049,
    "ruined</w>": 7050,
    "bored</w>": 7051,
    "idk</w>": 7052,
    "hide</w>": 7053,
    "ater</w>": 7054,
    "graduate</w>": 7055,
    "around,</w>": 7056,
    "puts</w>": 7057,
    "blocked</w>": 7058,
    "–</w>": 7059,
    "bedroom</w>": 7060,
    "significant</w>": 7061,
    "user": 7062,
    "Off": 7063,
    "gard": 7064,
    "clic": 7065,
    "release</w>": 7066,
    "hated</w>": 7067,
    "article</w>": 7068,
    "mun": 7069,
    "s;</w>": 7070,
    "conflic": 7071,
    "core</w>": 7072,
    "bed.</w>": 7073,
    "Part</w>": 7074,
    "High": 7075,
    "critic": 7076,
    "lo</w>": 7077,
    "receive</w>": 7078,
    "27": 7079,
    "Hou": 7080,
    "obses": 7081,
    "Being</w>": 7082,
    "wait": 7083,
    "seat</w>": 7084,
    "below</w>": 7085,
    "area.</w>": 7086,
    "she'd</w>": 7087,
    "ination</w>": 7088,
    "asshole?</w>": 7089,
    "matter": 7090,
    "ump</w>": 7091,
    "grateful</w>": 7092,
    "stairs</w>": 7093,
    "cheating</w>": 7094,
    "chicken</w>": 7095,
    "diagnosed</w>": 7096,
    "pha": 7097,
    "issue.</w>": 7098,
    "rock</w>": 7099,
    "sand": 7100,
    "worse.</w>": 7101,
    "i.": 7102,
    "map</w>": 7103,
    "now?</w>": 7104,
    "did,</w>": 7105,
    "food,</w>": 7106,
    "name.</w>": 7107,
    "ve?</w>": 7108,
    "throwaway</w>": 7109,
    "hitting</w>": 7110,
    "migr": 7111,
    "Something</w>": 7112,
    "Stu": 7113,
    "siz": 7114,
    "skills</w>": 7115,
    "birth</w>": 7116,
    "soon.</w>": 7117,
    "lob": 7118,
    "tag": 7119,
    "chor": 7120,
    "siblings</w>": 7121,
    "coworker</w>": 7122,
    "votes</w>": 7123,
    "SH": 7124,
    "non</w>": 7125,
    "bad,</w>": 7126,
    "lb": 7127,
    "soft</w>": 7128,
    "claim</w>": 7129,
    "lot,</w>": 7130,
    "odd</w>": 7131,
    "replied</w>": 7132,
    "urb": 7133,
    "cts</w>": 7134,
    "Nov": 7135,
    "ics,</w>": 7136,
    "truth</w>": 7137,
    "vs.</w>": 7138,
    "want.</w>": 7139,
    "feedback</w>": 7140,
    "Mov": 7141,
    "future.</w>": 7142,
    "ents,</w>": 7143,
    "conveni": 7144,
    "scor": 7145,
    "eing</w>": 7146,
    "helpful</w>": 7147,
    "miser": 7148,
    "nigg": 7149,
    "adding</w>": 7150,
    "visiting</w>": 7151,
    "invit": 7152,
    "bills</w>": 7153,
    "anu": 7154,
    "direct</w>": 7155,
    "budget</w>": 7156,
    "Pol": 7157,
    "Bro": 7158,
    "customer</w>": 7159,
    "overwhel": 7160,
    "*.</w>": 7161,
    "aside</w>": 7162,
    "garett": 7163,
    "crow": 7164,
    "creating</w>": 7165,
    "manage": 7166,
    "wed</w>": 7167,
    "ories</w>": 7168,
    "mix</w>": 7169,
    "4.": 7170,
    "Go</w>": 7171,
    "ity": 7172,
    "stal": 7173,
    "kne": 7174,
    "ench</w>": 7175,
    "alifor": 7176,
    "28": 7177,
    "ex-": 7178,
    "conserv": 7179,
    "Friday</w>": 7180,
    "Never</w>": 7181,
    "America</w>": 7182,
    "parent</w>": 7183,
    "nah.</w>": 7184,
    "food.</w>": 7185,
    "ws</w>": 7186,
    "MY</w>": 7187,
    "users</w>": 7188,
    "dying</w>": 7189,
    "volu": 7190,
    "IAmA</w>": 7191,
    "dish": 7192,
    "bli": 7193,
    "reason.</w>": 7194,
    "numbers</w>": 7195,
    "ux</w>": 7196,
    "shower</w>": 7197,
    "Ear": 7198,
    "MA": 7199,
    "convince</w>": 7200,
    "manipul": 7201,
    "idea.</w>": 7202,
    "aliforni": 7203,
    "hurting</w>": 7204,
    "GO": 7205,
    "fying</w>": 7206,
    "iP": 7207,
    "ways.</w>": 7208,
    "ps,</w>": 7209,
    "color</w>": 7210,
    "ological</w>": 7211,
    "use,</w>": 7212,
    "23</w>": 7213,
    "increase</w>": 7214,
    "therapist</w>": 7215,
    "be?</w>": 7216,
    "ils</w>": 7217,
    "AM</w>": 7218,
    "disappe": 7219,
    "ist,</w>": 7220,
    "Long</w>": 7221,
    "among</w>": 7222,
    "shopping</w>": 7223,
    "connected</w>": 7224,
    "opening</w>": 7225,
    "account.</w>": 7226,
    "frustrated</w>": 7227,
    "fact,</w>": 7228,
    "dor": 7229,
    "sac": 7230,
    "eded</w>": 7231,
    "drinks</w>": 7232,
    "ps.</w>": 7233,
    "lik": 7234,
    "ized</w>": 7235,
    "lights</w>": 7236,
    "Mat": 7237,
    "fun.</w>": 7238,
    "essing</w>": 7239,
    "Get</w>": 7240,
    "\"The</w>": 7241,
    "(a</w>": 7242,
    "n't.</w>": 7243,
    "assist": 7244,
    "solve</w>": 7245,
    "Great</w>": 7246,
    "iling</w>": 7247,
    "iPhone</w>": 7248,
    "vil": 7249,
    "tific": 7250,
    "apped</w>": 7251,
    "uncle</w>": 7252,
    "anymore,</w>": 7253,
    "station</w>": 7254,
    "depart": 7255,
    "sigh": 7256,
    "exper": 7257,
    "ky": 7258,
    "Happy</w>": 7259,
    "sed": 7260,
    "driver</w>": 7261,
    "der.</w>": 7262,
    "he'll</w>": 7263,
    "repli": 7264,
    "reaction</w>": 7265,
    "tos": 7266,
    "time?</w>": 7267,
    "semester</w>": 7268,
    "slept</w>": 7269,
    "mel": 7270,
    "album</w>": 7271,
    "meal</w>": 7272,
    "why.</w>": 7273,
    "terr": 7274,
    "reached</w>": 7275,
    "but,</w>": 7276,
    "cigarett": 7277,
    "WA": 7278,
    "short,</w>": 7279,
    "useful</w>": 7280,
    "stick": 7281,
    "compared</w>": 7282,
    "responded</w>": 7283,
    "vehic": 7284,
    "toler": 7285,
    "rap": 7286,
    "face.</w>": 7287,
    "istic</w>": 7288,
    "pushing</w>": 7289,
    "responsibility</w>": 7290,
    "saving</w>": 7291,
    "ints</w>": 7292,
    "affect</w>": 7293,
    "duce</w>": 7294,
    "trees</w>": 7295,
    "ed!</w>": 7296,
    "accidentally</w>": 7297,
    "open": 7298,
    "eli": 7299,
    "te:</w>": 7300,
    "gifts</w>": 7301,
    "edi": 7302,
    "sets</w>": 7303,
    "you!</w>": 7304,
    "types</w>": 7305,
    "complic": 7306,
    "skill": 7307,
    "fans</w>": 7308,
    "then.</w>": 7309,
    "ussi": 7310,
    "in?</w>": 7311,
    "young": 7312,
    "panic</w>": 7313,
    "ane</w>": 7314,
    "Ri": 7315,
    "Ther": 7316,
    "gress</w>": 7317,
    "led,</w>": 7318,
    "Video</w>": 7319,
    "fru": 7320,
    "input</w>": 7321,
    "Sup": 7322,
    "shar": 7323,
    "reality</w>": 7324,
    "tech</w>": 7325,
    "ft": 7326,
    "cut": 7327,
    "folks</w>": 7328,
    "awesome.</w>": 7329,
    "shit,</w>": 7330,
    "question,</w>": 7331,
    "far.</w>": 7332,
    "companies</w>": 7333,
    "book.</w>": 7334,
    "end,</w>": 7335,
    "tun": 7336,
    "text": 7337,
    "tele": 7338,
    "(she</w>": 7339,
    "voted</w>": 7340,
    "conso": 7341,
    "interview": 7342,
    "Mor": 7343,
    "arch": 7344,
    "puni": 7345,
    ");</w>": 7346,
    "Int": 7347,
    "mari": 7348,
    "ist.</w>": 7349,
    "pandem": 7350,
    "grad</w>": 7351,
    "assa": 7352,
    "sure.</w>": 7353,
    "anxiet": 7354,
    "Sub": 7355,
    "rele": 7356,
    "successful</w>": 7357,
    "accur": 7358,
    "part.</w>": 7359,
    "phone,</w>": 7360,
    "ly)</w>": 7361,
    "I,</w>": 7362,
    "morning,</w>": 7363,
    "itude</w>": 7364,
    "rou": 7365,
    "complaining</w>": 7366,
    "mates</w>": 7367,
    ":D</w>": 7368,
    "B;</w>": 7369,
    "sic": 7370,
    "tast": 7371,
    "elled</w>": 7372,
    "lazy</w>": 7373,
    "weeks,</w>": 7374,
    "ating.</w>": 7375,
    "sem": 7376,
    "Other</w>": 7377,
    "Austr": 7378,
    "noo": 7379,
    "val</w>": 7380,
    "required</w>": 7381,
    "pool</w>": 7382,
    "(if</w>": 7383,
    "guilt</w>": 7384,
    "Cha": 7385,
    "eption</w>": 7386,
    "circum": 7387,
    "SP": 7388,
    "You're</w>": 7389,
    "worth": 7390,
    "animal</w>": 7391,
    "tical</w>": 7392,
    "soc": 7393,
    "mur": 7394,
    "nervous</w>": 7395,
    "pizza</w>": 7396,
    "kids,</w>": 7397,
    "won</w>": 7398,
    "esca": 7399,
    "absolute</w>": 7400,
    "tions,</w>": 7401,
    "exerci": 7402,
    "distr": 7403,
    "iest</w>": 7404,
    "brings</w>": 7405,
    "cup": 7406,
    "&amp;#x200": 7407,
    "&amp;#x200B;</w>": 7408,
    "Apri": 7409,
    "require</w>": 7410,
    "hates</w>": 7411,
    "refusing</w>": 7412,
    "sexually</w>": 7413,
    "freaking</w>": 7414,
    "whom</w>": 7415,
    "ed:</w>": 7416,
    "Australi": 7417,
    "boys</w>": 7418,
    "construc": 7419,
    "shoes</w>": 7420,
    "Be</w>": 7421,
    "bled</w>": 7422,
    "fit": 7423,
    "convinced</w>": 7424,
    "ignored</w>": 7425,
    "spoke</w>": 7426,
    "month,</w>": 7427,
    "evening</w>": 7428,
    "marke": 7429,
    "tip</w>": 7430,
    "sex.</w>": 7431,
    "cooking</w>": 7432,
    "texting</w>": 7433,
    "asleep</w>": 7434,
    "still": 7435,
    "(who</w>": 7436,
    "philos": 7437,
    "Sci": 7438,
    "desk": 7439,
    "stressed</w>": 7440,
    "mistake</w>": 7441,
    "apps</w>": 7442,
    "egg": 7443,
    "cheated</w>": 7444,
    "uncomfort": 7445,
    "less,</w>": 7446,
    "--------------------------------": 7447,
    "bet</w>": 7448,
    "~~</w>": 7449,
    "her?</w>": 7450,
    "ly?</w>": 7451,
    "TV": 7452,
    "Going</w>": 7453,
    "Dar": 7454,
    "suicide</w>": 7455,
    "cial</w>": 7456,
    "Things</w>": 7457,
    "we'd</w>": 7458,
    "ne</w>": 7459,
    "universit": 7460,
    "body": 7461,
    "45</w>": 7462,
    "Oh,</w>": 7463,
    "world,</w>": 7464,
    "fro": 7465,
    "99": 7466,
    "hotel</w>": 7467,
    "abuse</w>": 7468,
    "it'll</w>": 7469,
    "happen.</w>": 7470,
    "ruin</w>": 7471,
    "1:</w>": 7472,
    "ME</w>": 7473,
    "highly</w>": 7474,
    "ities.</w>": 7475,
    "fer": 7476,
    "bum": 7477,
    "care.</w>": 7478,
    "messed</w>": 7479,
    "danger": 7480,
    "want": 7481,
    "independ": 7482,
    "make": 7483,
    "Ty": 7484,
    "why?</w>": 7485,
    "(like</w>": 7486,
    "flying</w>": 7487,
    "don</w>": 7488,
    "format": 7489,
    "volunte": 7490,
    "familiar</w>": 7491,
    "spoken</w>": 7492,
    "uplo": 7493,
    "serve</w>": 7494,
    "rant</w>": 7495,
    "covered</w>": 7496,
    "Ver": 7497,
    "senior</w>": 7498,
    "antic": 7499,
    "hypo": 7500,
    "taught</w>": 7501,
    "impossible</w>": 7502,
    "prevent</w>": 7503,
    "tional</w>": 7504,
    "ies,</w>": 7505,
    "sensitive</w>": 7506,
    "brothers</w>": 7507,
    "quali": 7508,
    "long.</w>": 7509,
    "A,</w>": 7510,
    "bit,</w>": 7511,
    "vice</w>": 7512,
    "Still</w>": 7513,
    "spread</w>": 7514,
    "ounded</w>": 7515,
    "problem,</w>": 7516,
    "member": 7517,
    "ared</w>": 7518,
    "teaching</w>": 7519,
    "oppos": 7520,
    "everyone": 7521,
    "ris": 7522,
    "ning.</w>": 7523,
    "pic</w>": 7524,
    "subst": 7525,
    "overall</w>": 7526,
    "7.</w>": 7527,
    "glas": 7528,
    "TL;DR</w>": 7529,
    "weekend.</w>": 7530,
    "drag": 7531,
    "think.</w>": 7532,
    "she'll</w>": 7533,
    "excit": 7534,
    "70</w>": 7535,
    "fiancé": 7536,
    "character": 7537,
    "intim": 7538,
    "ells</w>": 7539,
    "bes</w>": 7540,
    "announc": 7541,
    "ignoring</w>": 7542,
    "experience.</w>": 7543,
    "fed</w>": 7544,
    "enough,</w>": 7545,
    "holiday</w>": 7546,
    "shy</w>": 7547,
    "along": 7548,
    "society</w>": 7549,
    "World</w>": 7550,
    "great,</w>": 7551,
    "cked</w>": 7552,
    "minor</w>": 7553,
    "owe</w>": 7554,
    "host</w>": 7555,
    "questions.</w>": 7556,
    "each": 7557,
    "tiny</w>": 7558,
    "Appar": 7559,
    "Android</w>": 7560,
    "gent": 7561,
    "named</w>": 7562,
    "attend</w>": 7563,
    "haha": 7564,
    "SO": 7565,
    "people's</w>": 7566,
    "far,</w>": 7567,
    "ston</w>": 7568,
    "AN</w>": 7569,
    "change.</w>": 7570,
    "mood</w>": 7571,
    "amoun": 7572,
    "upgrad": 7573,
    "comfort</w>": 7574,
    "fixed</w>": 7575,
    "AP": 7576,
    "associ": 7577,
    "smaller</w>": 7578,
    "disappointed</w>": 7579,
    "tonight.</w>": 7580,
    "condition": 7581,
    "strate": 7582,
    "secure</w>": 7583,
    "rist</w>": 7584,
    "feed</w>": 7585,
    "Tues": 7586,
    "mark</w>": 7587,
    "exercise</w>": 7588,
    "metal</w>": 7589,
    "gement</w>": 7590,
    "Anything</w>": 7591,
    "amed</w>": 7592,
    "Lon": 7593,
    "des</w>": 7594,
    "i,</w>": 7595,
    "fresh</w>": 7596,
    "inde": 7597,
    "consum": 7598,
    "ent?</w>": 7599,
    "guitar</w>": 7600,
    "indic": 7601,
    "entr": 7602,
    "bling</w>": 7603,
    "sna": 7604,
    "teenag": 7605,
    "ously.</w>": 7606,
    "ram</w>": 7607,
    "whit": 7608,
    "grav": 7609,
    "eth": 7610,
    "ING": 7611,
    "der,</w>": 7612,
    "former</w>": 7613,
    "(we</w>": 7614,
    "'s,</w>": 7615,
    "Me:</w>": 7616,
    "stock</w>": 7617,
    "couple": 7618,
    "is:</w>": 7619,
    "yelled</w>": 7620,
    "suppose</w>": 7621,
    "...I</w>": 7622,
    "res,</w>": 7623,
    "compar": 7624,
    "ams</w>": 7625,
    "delete</w>": 7626,
    "cry": 7627,
    "lab": 7628,
    "arms</w>": 7629,
    "soon": 7630,
    "May</w>": 7631,
    "what’s</w>": 7632,
    "HT": 7633,
    "capable</w>": 7634,
    "vely</w>": 7635,
    "claims</w>": 7636,
    "challen": 7637,
    "class.</w>": 7638,
    "Chic": 7639,
    "ugly</w>": 7640,
    "Game</w>": 7641,
    "war</w>": 7642,
    "Christian</w>": 7643,
    "Tra": 7644,
    "lay</w>": 7645,
    "cab": 7646,
    "is?</w>": 7647,
    "protect</w>": 7648,
    "jokes</w>": 7649,
    "mine.</w>": 7650,
    "tomorrow.</w>": 7651,
    "ness.</w>": 7652,
    "But,</w>": 7653,
    "(3": 7654,
    "section</w>": 7655,
    "really,</w>": 7656,
    "ME": 7657,
    "oo</w>": 7658,
    "glass</w>": 7659,
    "ss.</w>": 7660,
    "'s.</w>": 7661,
    "23": 7662,
    "ied</w>": 7663,
    "Du": 7664,
    "child.</w>": 7665,
    "ML": 7666,
    "minutes.</w>": 7667,
    "ario</w>": 7668,
    "equip": 7669,
    "500": 7670,
    "blow</w>": 7671,
    "product</w>": 7672,
    "buntu": 7673,
    "are,</w>": 7674,
    "es\"</w>": 7675,
    "Redditors</w>": 7676,
    "LI": 7677,
    "start.</w>": 7678,
    "Sha": 7679,
    "dirty</w>": 7680,
    "lonely</w>": 7681,
    "bothered</w>": 7682,
    "Oc": 7683,
    "mobile</w>": 7684,
    "ha</w>": 7685,
    "conversations</w>": 7686,
    "relevant</w>": 7687,
    "love.</w>": 7688,
    "es...</w>": 7689,
    "regardless</w>": 7690,
    "encoun": 7691,
    "cell</w>": 7692,
    "to?</w>": 7693,
    "wash</w>": 7694,
    "Hard</w>": 7695,
    "Question</w>": 7696,
    "Char": 7697,
    "hats</w>": 7698,
    "er)</w>": 7699,
    "rooms</w>": 7700,
    "ron": 7701,
    "ements</w>": 7702,
    "sleep.</w>": 7703,
    "network</w>": 7704,
    ".*</w>": 7705,
    "say.</w>": 7706,
    "cancer</w>": 7707,
    "veg": 7708,
    "uce</w>": 7709,
    "dance</w>": 7710,
    "demo": 7711,
    "UN": 7712,
    "passing</w>": 7713,
    "Cap": 7714,
    "iled</w>": 7715,
    "taining</w>": 7716,
    "s-": 7717,
    "thro": 7718,
    "english</w>": 7719,
    "as.</w>": 7720,
    "reason,</w>": 7721,
    "sne": 7722,
    "evidence</w>": 7723,
    "roommates</w>": 7724,
    "body.</w>": 7725,
    "complain</w>": 7726,
    "ma.</w>": 7727,
    "get.</w>": 7728,
    "mature</w>": 7729,
    "Can't</w>": 7730,
    "Sam": 7731,
    "calm</w>": 7732,
    "hes</w>": 7733,
    "Saturday</w>": 7734,
    "compet": 7735,
    "inj": 7736,
    "bom": 7737,
    "audi": 7738,
    "advice,</w>": 7739,
    "rights</w>": 7740,
    "bloo": 7741,
    "Californi": 7742,
    "ids</w>": 7743,
    "done,</w>": 7744,
    "mom,</w>": 7745,
    "thus</w>": 7746,
    "describe</w>": 7747,
    "Pu": 7748,
    "together": 7749,
    "er-": 7750,
    "ments.</w>": 7751,
    "limit</w>": 7752,
    "centr": 7753,
    "ain</w>": 7754,
    "Stre": 7755,
    "kinds</w>": 7756,
    "role</w>": 7757,
    "ved.</w>": 7758,
    "y).</w>": 7759,
    "ism": 7760,
    "campa": 7761,
    "mom.</w>": 7762,
    "ident": 7763,
    "sev": 7764,
    "surr": 7765,
    "Jesus</w>": 7766,
    "GT": 7767,
    "os.</w>": 7768,
    "bits</w>": 7769,
    "deal.</w>": 7770,
    "they'll</w>": 7771,
    "oursel": 7772,
    "divorc": 7773,
    "computer": 7774,
    "smoo": 7775,
    "official</w>": 7776,
    "remo": 7777,
    "recommendations</w>": 7778,
    "zen</w>": 7779,
    "properly</w>": 7780,
    "exchange</w>": 7781,
    "ina</w>": 7782,
    "situation,</w>": 7783,
    "dog.</w>": 7784,
    "22": 7785,
    "predic": 7786,
    "Spe": 7787,
    "MM": 7788,
    "drove</w>": 7789,
    "grandmother</w>": 7790,
    "potentially</w>": 7791,
    "Twitter</w>": 7792,
    "pathe": 7793,
    "shu": 7794,
    "iring</w>": 7795,
    "fire": 7796,
    "states</w>": 7797,
    "long,</w>": 7798,
    "occasionally</w>": 7799,
    "enjoying</w>": 7800,
    "aches</w>": 7801,
    "fal": 7802,
    "everyone,</w>": 7803,
    "DAT": 7804,
    "len": 7805,
    "necessarily</w>": 7806,
    "name,</w>": 7807,
    "phon": 7808,
    "BB": 7809,
    "Anybody</w>": 7810,
    "a)</w>": 7811,
    "neighbor</w>": 7812,
    "laughing</w>": 7813,
    "t)</w>": 7814,
    "hard.</w>": 7815,
    "flight</w>": 7816,
    "ets</w>": 7817,
    "book,</w>": 7818,
    "Id": 7819,
    "culture</w>": 7820,
    "However</w>": 7821,
    "understood</w>": 7822,
    "hungr": 7823,
    "GP": 7824,
    "cried</w>": 7825,
    "cup</w>": 7826,
    "model</w>": 7827,
    "shots</w>": 7828,
    "cast": 7829,
    "ain’t</w>": 7830,
    "specific": 7831,
    "lean": 7832,
    "Amazon</w>": 7833,
    "resources</w>": 7834,
    "Red</w>": 7835,
    "ury</w>": 7836,
    "Tre": 7837,
    "Reddit:</w>": 7838,
    "sident</w>": 7839,
    "entitled</w>": 7840,
    "direction</w>": 7841,
    "may": 7842,
    "laid</w>": 7843,
    "alot</w>": 7844,
    "black": 7845,
    "hid": 7846,
    "doing.</w>": 7847,
    "Keep</w>": 7848,
    "Big</w>": 7849,
    "stum": 7850,
    "location</w>": 7851,
    "cross</w>": 7852,
    "race</w>": 7853,
    "??": 7854,
    "C.</w>": 7855,
    "-time</w>": 7856,
    "Op": 7857,
    "Canada</w>": 7858,
    "danc": 7859,
    "gue</w>": 7860,
    "y...</w>": 7861,
    "base</w>": 7862,
    "consequ": 7863,
    "education</w>": 7864,
    "***</w>": 7865,
    "Sep": 7866,
    "sports</w>": 7867,
    "graphics</w>": 7868,
    "Mac</w>": 7869,
    "etc.": 7870,
    "typical</w>": 7871,
    "sisters</w>": 7872,
    ":30</w>": 7873,
    "screaming</w>": 7874,
    "heavi": 7875,
    "rr": 7876,
    "becomes</w>": 7877,
    "trash</w>": 7878,
    "10-": 7879,
    "D,</w>": 7880,
    "Supp": 7881,
    "',</w>": 7882,
    "Fa": 7883,
    "-up</w>": 7884,
    "United</w>": 7885,
    "ink": 7886,
    "gho": 7887,
    "Man</w>": 7888,
    "chee": 7889,
    "San</w>": 7890,
    "Val": 7891,
    "Hope</w>": 7892,
    "music,</w>": 7893,
    "closest</w>": 7894,
    "anyone.</w>": 7895,
    "purpose</w>": 7896,
    "Feel</w>": 7897,
    "bullshit</w>": 7898,
    "anymor": 7899,
    "kiss</w>": 7900,
    "n'": 7901,
    "finds</w>": 7902,
    "5,</w>": 7903,
    "**Edit": 7904,
    "ty,</w>": 7905,
    "adverti": 7906,
    "surprise</w>": 7907,
    "crimin": 7908,
    "Boo": 7909,
    "heat</w>": 7910,
    "gender</w>": 7911,
    "him?</w>": 7912,
    "band": 7913,
    "e’s</w>": 7914,
    "owned</w>": 7915,
    "domin": 7916,
    "OK": 7917,
    "post,</w>": 7918,
    "ALL</w>": 7919,
    "Z</w>": 7920,
    "stop.</w>": 7921,
    "6.</w>": 7922,
    "sam": 7923,
    "cared</w>": 7924,
    "effects</w>": 7925,
    "fresh": 7926,
    "plying</w>": 7927,
    "me)</w>": 7928,
    "lur": 7929,
    "competit": 7930,
    "radio</w>": 7931,
    "COV": 7932,
    "freed": 7933,
    "costs</w>": 7934,
    "according</w>": 7935,
    "exist</w>": 7936,
    "dreams</w>": 7937,
    "atically</w>": 7938,
    "Basically</w>": 7939,
    "kes.</w>": 7940,
    "anta</w>": 7941,
    "Both</w>": 7942,
    "near": 7943,
    "case,</w>": 7944,
    "pushed</w>": 7945,
    "Isl": 7946,
    "military</w>": 7947,
    "kemon</w>": 7948,
    "ed\"</w>": 7949,
    "developed</w>": 7950,
    "ES</w>": 7951,
    "spr": 7952,
    "put": 7953,
    "(he</w>": 7954,
    "me!</w>": 7955,
    "UR": 7956,
    "ours</w>": 7957,
    "civi": 7958,
    "proof</w>": 7959,
    "appreciated</w>": 7960,
    "My": 7961,
    "Blu": 7962,
    "hil": 7963,
    "Fre": 7964,
    "Had</w>": 7965,
    "500</w>": 7966,
    "play.</w>": 7967,
    "ox</w>": 7968,
    "Tell</w>": 7969,
    "satur": 7970,
    "YOU": 7971,
    "edia</w>": 7972,
    "yet": 7973,
    "soft": 7974,
    "shooting</w>": 7975,
    "s.\"</w>": 7976,
    "DS": 7977,
    "Sug": 7978,
    "groups</w>": 7979,
    "benefit</w>": 7980,
    "gone.</w>": 7981,
    "//": 7982,
    "pants</w>": 7983,
    "personality</w>": 7984,
    "UK</w>": 7985,
    "voting</w>": 7986,
    "mid</w>": 7987,
    "desire</w>": 7988,
    "ics.</w>": 7989,
    "achiev": 7990,
    "That": 7991,
    "forward": 7992,
    "grat": 7993,
    "dates</w>": 7994,
    "zero</w>": 7995,
    "through.</w>": 7996,
    "Tor": 7997,
    "TL;DR:</w>": 7998,
    "?!": 7999,
    "emotions</w>": 8000,
    "Trying</w>": 8001,
    "assumed</w>": 8002,
    "cycle</w>": 8003,
    "removed</w>": 8004,
    "Memor": 8005,
    "randomly</w>": 8006,
    "silly</w>": 8007,
    "swa": 8008,
    "doctors</w>": 8009,
    "Anyways,</w>": 8010,
    "noise</w>": 8011,
    "mm</w>": 8012,
    "redditor</w>": 8013,
    "reve": 8014,
    "o-": 8015,
    "lls</w>": 8016,
    "tered</w>": 8017,
    "gold</w>": 8018,
    "away": 8019,
    "on-": 8020,
    "Core</w>": 8021,
    "debt</w>": 8022,
    "peace</w>": 8023,
    "resear": 8024,
    "pot</w>": 8025,
    "applied</w>": 8026,
    "crush": 8027,
    "grades</w>": 8028,
    ",000": 8029,
    "brok": 8030,
    "Pho": 8031,
    "allows</w>": 8032,
    "promo": 8033,
    "oring</w>": 8034,
    "function</w>": 8035,
    "mind,</w>": 8036,
    "Inst": 8037,
    "severe</w>": 8038,
    "else,</w>": 8039,
    "}</w>": 8040,
    ":30": 8041,
    "tight</w>": 8042,
    "Ba": 8043,
    "Back": 8044,
    "minimum</w>": 8045,
    "document": 8046,
    "horr": 8047,
    "favourite</w>": 8048,
    "favorit": 8049,
    "simple": 8050,
    "Inste": 8051,
    "toward</w>": 8052,
    "express</w>": 8053,
    "CH": 8054,
    "pick": 8055,
    "ordin": 8056,
    "Dev": 8057,
    "for,</w>": 8058,
    "couch</w>": 8059,
    "ious</w>": 8060,
    "hes": 8061,
    "arc": 8062,
    "battery</w>": 8063,
    "6.": 8064,
    "line.</w>": 8065,
    "ity?</w>": 8066,
    "Person": 8067,
    "dun": 8068,
    "xim": 8069,
    "promi": 8070,
    "Having</w>": 8071,
    "same.</w>": 8072,
    "parties</w>": 8073,
    "Hey,</w>": 8074,
    "inking</w>": 8075,
    "tat": 8076,
    "spare</w>": 8077,
    "pus</w>": 8078,
    "Canadi": 8079,
    "submit</w>": 8080,
    "Ask": 8081,
    "kin</w>": 8082,
    "hardly</w>": 8083,
    "imple": 8084,
    "individual</w>": 8085,
    "dedic": 8086,
    ".....</w>": 8087,
    "help?</w>": 8088,
    "rich</w>": 8089,
    "os,</w>": 8090,
    "thir": 8091,
    "custom</w>": 8092,
    "problems.</w>": 8093,
    "MS": 8094,
    "pal": 8095,
    "reless</w>": 8096,
    "demand": 8097,
    "kni": 8098,
    "plane</w>": 8099,
    "r.</w>": 8100,
    "stomach</w>": 8101,
    "ning,</w>": 8102,
    "respectful</w>": 8103,
    "gor": 8104,
    "cook": 8105,
    "struggle</w>": 8106,
    "we’ve</w>": 8107,
    "ed/": 8108,
    "edly</w>": 8109,
    "tons</w>": 8110,
    "mariju": 8111,
    "door": 8112,
    "ary,</w>": 8113,
    "Ide": 8114,
    "confident</w>": 8115,
    "waited</w>": 8116,
    "moment.</w>": 8117,
    "income</w>": 8118,
    "Pal": 8119,
    "calcul": 8120,
    "Power</w>": 8121,
    "ston": 8122,
    "d-": 8123,
    "Request": 8124,
    "5.": 8125,
    "emerg": 8126,
    "GA": 8127,
    "They're</w>": 8128,
    "pretend</w>": 8129,
    "UPDAT": 8130,
    "okay,</w>": 8131,
    "evolu": 8132,
    "asing</w>": 8133,
    "whatever.</w>": 8134,
    "leave.</w>": 8135,
    "grocery</w>": 8136,
    "lli": 8137,
    "additional</w>": 8138,
    "80</w>": 8139,
    "informed</w>": 8140,
    "citiz": 8141,
    "item</w>": 8142,
    "Win": 8143,
    "romantic</w>": 8144,
    "fi</w>": 8145,
    "s...": 8146,
    "co-work": 8147,
    "jealous</w>": 8148,
    "During</w>": 8149,
    "issues,</w>": 8150,
    "vet</w>": 8151,
    "fast": 8152,
    "OF</w>": 8153,
    "Basically,</w>": 8154,
    "life?</w>": 8155,
    "rule</w>": 8156,
    "transp": 8157,
    "Mis": 8158,
    "Obviously</w>": 8159,
    "okay.</w>": 8160,
    "steps</w>": 8161,
    "teen</w>": 8162,
    "BU": 8163,
    "dom</w>": 8164,
    "judge</w>": 8165,
    "animals</w>": 8166,
    "appreciated": 8167,
    "sex,</w>": 8168,
    "something": 8169,
    "refuses</w>": 8170,
    "number": 8171,
    "(even</w>": 8172,
    "profile</w>": 8173,
    "privac": 8174,
    "bowl</w>": 8175,
    "ing...</w>": 8176,
    "meat</w>": 8177,
    "rs</w>": 8178,
    "tive,</w>": 8179,
    "SF": 8180,
    "deliver": 8181,
    "leading</w>": 8182,
    "sm</w>": 8183,
    "annoy": 8184,
    "Mother": 8185,
    "inte": 8186,
    "furi": 8187,
    "luck": 8188,
    "offering</w>": 8189,
    "smoked</w>": 8190,
    "perman": 8191,
    "it'd</w>": 8192,
    "know?</w>": 8193,
    "Exc": 8194,
    "programming</w>": 8195,
    "Dro": 8196,
    "irrit": 8197,
    "one-": 8198,
    "rever": 8199,
    "desk</w>": 8200,
    "ves,</w>": 8201,
    "usu": 8202,
    "purchased</w>": 8203,
    "theor": 8204,
    "tory</w>": 8205,
    "Yor": 8206,
    "tter": 8207,
    "steam</w>": 8208,
    "images</w>": 8209,
    "common": 8210,
    "Tri": 8211,
    "Thurs": 8212,
    "originally</w>": 8213,
    "strict</w>": 8214,
    "en's</w>": 8215,
    "Make</w>": 8216,
    "mon</w>": 8217,
    "workout</w>": 8218,
    "argue</w>": 8219,
    "atheist</w>": 8220,
    "ret": 8221,
    "what?</w>": 8222,
    "Over</w>": 8223,
    "tl;dr:</w>": 8224,
    "ators</w>": 8225,
    "occur": 8226,
    "stret": 8227,
    "legs</w>": 8228,
    "stupid": 8229,
    "sive.</w>": 8230,
    "HO": 8231,
    "opposite</w>": 8232,
    "accounts</w>": 8233,
    "burn</w>": 8234,
    "(but</w>": 8235,
    "mins</w>": 8236,
    "gy</w>": 8237,
    "parano": 8238,
    "music.</w>": 8239,
    "Help": 8240,
    "legit": 8241,
    "about,</w>": 8242,
    "God": 8243,
    "keys</w>": 8244,
    "pill": 8245,
    "FA": 8246,
    "session</w>": 8247,
    "TW": 8248,
    "pon": 8249,
    "pieces</w>": 8250,
    "going.</w>": 8251,
    "boring</w>": 8252,
    "hire</w>": 8253,
    "!!!!</w>": 8254,
    "sure,</w>": 8255,
    "—</w>": 8256,
    "ities,</w>": 8257,
    "yard</w>": 8258,
    "covid</w>": 8259,
    "verb": 8260,
    "appears</w>": 8261,
    "opped</w>": 8262,
    "UUUU": 8263,
    "websites</w>": 8264,
    "CD</w>": 8265,
    "min</w>": 8266,
    "nature</w>": 8267,
    "turn": 8268,
    "dise": 8269,
    "\"you</w>": 8270,
    "anni": 8271,
    "programs</w>": 8272,
    "attoo": 8273,
    "upgrade</w>": 8274,
    "i.e.</w>": 8275,
    "sense.</w>": 8276,
    "tournam": 8277,
    "ator": 8278,
    "cin": 8279,
    "forum": 8280,
    "everything,</w>": 8281,
    "impro": 8282,
    "cake</w>": 8283,
    "fail</w>": 8284,
    "symp": 8285,
    "nit": 8286,
    "ro</w>": 8287,
    "arian</w>": 8288,
    "anything": 8289,
    "arguments</w>": 8290,
    "breaks</w>": 8291,
    "kid.</w>": 8292,
    "assign": 8293,
    "modern</w>": 8294,
    "unt</w>": 8295,
    "29": 8296,
    "they'd</w>": 8297,
    "property</w>": 8298,
    "ob</w>": 8299,
    "scra": 8300,
    "appear": 8301,
    "pages</w>": 8302,
    "boot</w>": 8303,
    "shot": 8304,
    "cuz</w>": 8305,
    "casual</w>": 8306,
    "liqu": 8307,
    "Reddit!</w>": 8308,
    "corner</w>": 8309,
    "Q</w>": 8310,
    "smile</w>": 8311,
    "payment</w>": 8312,
    "er:</w>": 8313,
    "le-": 8314,
    "ser</w>": 8315,
    "ling": 8316,
    "schools</w>": 8317,
    "\"You</w>": 8318,
    "flat": 8319,
    "counsel": 8320,
    "try": 8321,
    "bucks</w>": 8322,
    "a-": 8323,
    "wide</w>": 8324,
    "alized</w>": 8325,
    "Been</w>": 8326,
    "Minecraft</w>": 8327,
    "Pic": 8328,
    "ske": 8329,
    "memories</w>": 8330,
    "izing</w>": 8331,
    "ems</w>": 8332,
    "it)</w>": 8333,
    "commer": 8334,
    "SE": 8335,
    "pounds</w>": 8336,
    "eding</w>": 8337,
    "AMA.</w>": 8338,
    "bol": 8339,
    "$100": 8340,
    "CPU</w>": 8341,
    "advent": 8342,
    "ppl</w>": 8343,
    "Tex": 8344,
    "latest</w>": 8345,
    "SS</w>": 8346,
    "mixed</w>": 8347,
    "gate</w>": 8348,
    "twitter</w>": 8349,
    "ALLY</w>": 8350,
    "circumst": 8351,
    "ato": 8352,
    "________________": 8353,
    "bo</w>": 8354,
    "adem": 8355,
    "Back</w>": 8356,
    "situations</w>": 8357,
    "stable</w>": 8358,
    "sale</w>": 8359,
    "appear</w>": 8360,
    "Post</w>": 8361,
    "stage</w>": 8362,
    "ians</w>": 8363,
    "weather</w>": 8364,
    "client</w>": 8365,
    "[H": 8366,
    "head,</w>": 8367,
    "larger</w>": 8368,
    "weight": 8369,
    "anxious</w>": 8370,
    "thol": 8371,
    "rub": 8372,
    "cot": 8373,
    "====": 8374,
    "prior</w>": 8375,
    "chocol": 8376,
    "cultu": 8377,
    "tric": 8378,
    "Sunday</w>": 8379,
    "Asi": 8380,
    "riding</w>": 8381,
    "April</w>": 8382,
    "er/": 8383,
    "since.</w>": 8384,
    "country.</w>": 8385,
    "ked.</w>": 8386,
    "asha": 8387,
    "dad.</w>": 8388,
    "of,</w>": 8389,
    "\\*": 8390,
    "stood</w>": 8391,
    "No,</w>": 8392,
    "embarrassed</w>": 8393,
    "forgive</w>": 8394,
    "USB</w>": 8395,
    "\"I'm</w>": 8396,
    "regularly</w>": 8397,
    "Sim": 8398,
    "Mag": 8399,
    "ke?</w>": 8400,
    "print</w>": 8401,
    "ica</w>": 8402,
    "released</w>": 8403,
    "supportive</w>": 8404,
    "stress": 8405,
    "business.</w>": 8406,
    "acqu": 8407,
    "Japan": 8408,
    "wash": 8409,
    "THE": 8410,
    "Pa": 8411,
    "mirr": 8412,
    "believed</w>": 8413,
    "alle": 8414,
    "overre": 8415,
    "ans,</w>": 8416,
    "ible</w>": 8417,
    "confidence</w>": 8418,
    "legitim": 8419,
    "s.": 8420,
    "10.</w>": 8421,
    "alive</w>": 8422,
    "cable</w>": 8423,
    "toilet</w>": 8424,
    "4,</w>": 8425,
    "pir": 8426,
    "hi</w>": 8427,
    "badly</w>": 8428,
    "6-": 8429,
    "promised</w>": 8430,
    "depending</w>": 8431,
    "path": 8432,
    "sub</w>": 8433,
    "class,</w>": 8434,
    "debate</w>": 8435,
    "staff</w>": 8436,
    "Apple</w>": 8437,
    "giant</w>": 8438,
    "dram": 8439,
    "EVER": 8440,
    "individu": 8441,
    "hits</w>": 8442,
    "eff": 8443,
    "faith</w>": 8444,
    "have,</w>": 8445,
    "rif": 8446,
    "wrong?</w>": 8447,
    "drivers</w>": 8448,
    "concept</w>": 8449,
    "dish</w>": 8450,
    "qual": 8451,
    "shipping</w>": 8452,
    "challeng": 8453,
    "DDR": 8454,
    "tree</w>": 8455,
    "drama</w>": 8456,
    "gather": 8457,
    "Wed": 8458,
    "Hope": 8459,
    "error</w>": 8460,
    "ored</w>": 8461,
    "8-": 8462,
    "$15": 8463,
    "onym": 8464,
    "wood</w>": 8465,
    "DE": 8466,
    "(with</w>": 8467,
    "Suggest": 8468,
    "apologized</w>": 8469,
    "submis": 8470,
    "pa</w>": 8471,
    "cles</w>": 8472,
    "Republic": 8473,
    "complex</w>": 8474,
    "PR": 8475,
    "$7": 8476,
    "Athe": 8477,
    "5%</w>": 8478,
    "insp": 8479,
    "performance</w>": 8480,
    "Cov": 8481,
    "thrown</w>": 8482,
    "patient</w>": 8483,
    "teeth</w>": 8484,
    "lord</w>": 8485,
    "rain</w>": 8486,
    "(S": 8487,
    "door.</w>": 8488,
    "Whenever</w>": 8489,
    "laughed</w>": 8490,
    "thern</w>": 8491,
    "Secon": 8492,
    "2010</w>": 8493,
    "prepared</w>": 8494,
    "maintain</w>": 8495,
    "everywhere</w>": 8496,
    "leads</w>": 8497,
    "represent": 8498,
    "tattoo": 8499,
    "Bur": 8500,
    "condition</w>": 8501,
    "recognize</w>": 8502,
    "warm</w>": 8503,
    "pointed</w>": 8504,
    "track": 8505,
    "friend?</w>": 8506,
    "financially</w>": 8507,
    "PM": 8508,
    "nephe": 8509,
    "Colle": 8510,
    "ness,</w>": 8511,
    "past": 8512,
    "stin": 8513,
    "Ok</w>": 8514,
    "OP</w>": 8515,
    "unfortunately</w>": 8516,
    "Apparently</w>": 8517,
    "party.</w>": 8518,
    "yy": 8519,
    "safety</w>": 8520,
    "card.</w>": 8521,
    "alone,</w>": 8522,
    "coworkers</w>": 8523,
    "buddy</w>": 8524,
    "recently,</w>": 8525,
    "cking</w>": 8526,
    "TOM": 8527,
    "bear</w>": 8528,
    "aban": 8529,
    "Aga": 8530,
    "Bri": 8531,
    "zombi": 8532,
    "thought": 8533,
    "Aug": 8534,
    ":00</w>": 8535,
    "require": 8536,
    "placed</w>": 8537,
    "deleted</w>": 8538,
    "girlfriend.</w>": 8539,
    "micro": 8540,
    "traffic</w>": 8541,
    "ented</w>": 8542,
    "ox": 8543,
    "monitor</w>": 8544,
    "whose</w>": 8545,
    "Wom": 8546,
    "by.</w>": 8547,
    "determin": 8548,
    "ticke": 8549,
    "Septem": 8550,
    "ray</w>": 8551,
    "WI": 8552,
    "level": 8553,
    "fs</w>": 8554,
    "aggressive</w>": 8555,
    "appointment</w>": 8556,
    "moments</w>": 8557,
    "concern</w>": 8558,
    "swear</w>": 8559,
    "sters</w>": 8560,
    "Chr": 8561,
    "sandw": 8562,
    "dropping</w>": 8563,
    "works.</w>": 8564,
    "clue</w>": 8565,
    "Cro": 8566,
    "?**</w>": 8567,
    "attitude</w>": 8568,
    "guar": 8569,
    "That’s</w>": 8570,
    "responsibil": 8571,
    "ren": 8572,
    "199": 8573,
    "restric": 8574,
    "acks</w>": 8575,
    "tempor": 8576,
    "pulling</w>": 8577,
    "twi": 8578,
    "cops</w>": 8579,
    "link": 8580,
    "tld": 8581,
    "ations?</w>": 8582,
    "court</w>": 8583,
    "Reddit?</w>": 8584,
    "[W": 8585,
    "Take</w>": 8586,
    "shown</w>": 8587,
    "think,</w>": 8588,
    "happened,</w>": 8589,
    "conclus": 8590,
    "res": 8591,
    "listed</w>": 8592,
    "heads</w>": 8593,
    "tradition": 8594,
    "YouTu": 8595,
    "mom's</w>": 8596,
    "y'": 8597,
    "proceeded</w>": 8598,
    "***": 8599,
    "ade": 8600,
    "possible,</w>": 8601,
    "acking</w>": 8602,
    "bed,</w>": 8603,
    "creative</w>": 8604,
    "ism,</w>": 8605,
    "son,</w>": 8606,
    "joined</w>": 8607,
    "neighbors</w>": 8608,
    "muscle</w>": 8609,
    "Tal": 8610,
    "leg</w>": 8611,
    "a's</w>": 8612,
    "photograph": 8613,
    "University</w>": 8614,
    "selfi": 8615,
    "#</w>": 8616,
    "application</w>": 8617,
    "league</w>": 8618,
    "Chi": 8619,
    "Thoughts?</w>": 8620,
    "complet": 8621,
    "philosoph": 8622,
    "ement.</w>": 8623,
    "drawing</w>": 8624,
    "spaw": 8625,
    "well-": 8626,
    "ady</w>": 8627,
    "page.</w>": 8628,
    "Wo": 8629,
    "cream</w>": 8630,
    "lish": 8631,
    "birthday.</w>": 8632,
    "happy,</w>": 8633,
    "udd": 8634,
    "sec": 8635,
    "contract</w>": 8636,
    "boyfriend.</w>": 8637,
    "estab": 8638,
    "compati": 8639,
    "context</w>": 8640,
    "dad's</w>": 8641,
    "Ive</w>": 8642,
    "Ap": 8643,
    "ard.</w>": 8644,
    "else?</w>": 8645,
    "mouse</w>": 8646,
    "een</w>": 8647,
    "cheaper</w>": 8648,
    "signs</w>": 8649,
    "credit": 8650,
    "ctive</w>": 8651,
    "Getting</w>": 8652,
    "progress</w>": 8653,
    "improv": 8654,
    "explaining</w>": 8655,
    "kid,</w>": 8656,
    "Ubuntu": 8657,
    "exclus": 8658,
    "rolling</w>": 8659,
    "treatment</w>": 8660,
    "universe</w>": 8661,
    "South</w>": 8662,
    "awkward": 8663,
    "DO": 8664,
    "ment?</w>": 8665,
    "celebrate</w>": 8666,
    "w.</w>": 8667,
    "(no</w>": 8668,
    "5'": 8669,
    "ga</w>": 8670,
    "rn</w>": 8671,
    "messaged</w>": 8672,
    "(it</w>": 8673,
    "transfer</w>": 8674,
    "Intel</w>": 8675,
    "apologiz": 8676,
    "yers</w>": 8677,
    "North</w>": 8678,
    "previously</w>": 8679,
    "greatest</w>": 8680,
    "Christian": 8681,
    "300": 8682,
    "path</w>": 8683,
    "ONE</w>": 8684,
    "Christmas": 8685,
    "Proble": 8686,
    "advance.</w>": 8687,
    "Honest": 8688,
    "\"S": 8689,
    "motivation</w>": 8690,
    "ki</w>": 8691,
    "explo": 8692,
    "typically</w>": 8693,
    "tively</w>": 8694,
    "projects</w>": 8695,
    "ens": 8696,
    "mass</w>": 8697,
    "hesit": 8698,
    "matter.</w>": 8699,
    "PS3</w>": 8700,
    "hours,</w>": 8701,
    "served</w>": 8702,
    "have": 8703,
    "youtube</w>": 8704,
    "Curr": 8705,
    "audio</w>": 8706,
    "Super</w>": 8707,
    "weak</w>": 8708,
    "industry</w>": 8709,
    "techni": 8710,
    "contex": 8711,
    "attached</w>": 8712,
    "cares</w>": 8713,
    "automatically</w>": 8714,
    "flash</w>": 8715,
    "Pi": 8716,
    "where,</w>": 8717,
    "hasn’t</w>": 8718,
    "money": 8719,
    "ers?</w>": 8720,
    "adap": 8721,
    "abandon": 8722,
    "children.</w>": 8723,
    "included</w>": 8724,
    "labe": 8725,
    "shoul": 8726,
    "tend": 8727,
    "tta</w>": 8728,
    "temper": 8729,
    "thin</w>": 8730,
    "FUCK": 8731,
    "servic": 8732,
    "music": 8733,
    "check": 8734,
    "cancel</w>": 8735,
    "suffer</w>": 8736,
    "Coun": 8737,
    "sively</w>": 8738,
    "stone</w>": 8739,
    "ile</w>": 8740,
    "Many</w>": 8741,
    "manu": 8742,
    "requires</w>": 8743,
    "sing.</w>": 8744,
    "ma,</w>": 8745,
    "pag": 8746,
    "masturb": 8747,
    "cross": 8748,
    "minim": 8749,
    "part,</w>": 8750,
    "8.</w>": 8751,
    "proces": 8752,
    "drives</w>": 8753,
    "weal": 8754,
    "son.</w>": 8755,
    "extreme</w>": 8756,
    "winter</w>": 8757,
    "Finally</w>": 8758,
    "Dam": 8759,
    "specially</w>": 8760,
    "ily.</w>": 8761,
    "therefore</w>": 8762,
    "you’ve</w>": 8763,
    "enjoy": 8764,
    "shall</w>": 8765,
    "rob": 8766,
    "system.</w>": 8767,
    "t/": 8768,
    "company.</w>": 8769,
    "frequently</w>": 8770,
    "free.</w>": 8771,
    "teams</w>": 8772,
    "(this</w>": 8773,
    "mp</w>": 8774,
    "...and</w>": 8775,
    "four": 8776,
    "Ok,</w>": 8777,
    "3:</w>": 8778,
    "histor": 8779,
    "Those</w>": 8780,
    "teachers</w>": 8781,
    "demon": 8782,
    "refle": 8783,
    "someone.</w>": 8784,
    "o?</w>": 8785,
    "otherwi": 8786,
    "lovely</w>": 8787,
    "tonight": 8788,
    "strength</w>": 8789,
    "hand.</w>": 8790,
    "rush": 8791,
    "thes": 8792,
    "Okay,</w>": 8793,
    "cheese</w>": 8794,
    "ments,</w>": 8795,
    "C,</w>": 8796,
    "theory</w>": 8797,
    "o:</w>": 8798,
    "husband": 8799,
    "fired</w>": 8800,
    "hilari": 8801,
    "damag": 8802,
    "surgery</w>": 8803,
    "tb": 8804,
    "stere": 8805,
    "arguing</w>": 8806,
    "sar": 8807,
    "model": 8808,
    "earn</w>": 8809,
    "uled</w>": 8810,
    "background": 8811,
    "Star</w>": 8812,
    "episod": 8813,
    "tted</w>": 8814,
    "HEL": 8815,
    "for?</w>": 8816,
    "hiding</w>": 8817,
    "Ever</w>": 8818,
    "rare</w>": 8819,
    "ation:</w>": 8820,
    "tutor": 8821,
    "aps</w>": 8822,
    "balance</w>": 8823,
    "appreciated!</w>": 8824,
    "ass.</w>": 8825,
    "ashamed</w>": 8826,
    "istr": 8827,
    "creepy</w>": 8828,
    "Octo": 8829,
    "claimed</w>": 8830,
    "es).</w>": 8831,
    "Ru": 8832,
    "stern</w>": 8833,
    "ating,</w>": 8834,
    "Sal": 8835,
    "communication</w>": 8836,
    "!”</w>": 8837,
    "plate</w>": 8838,
    "hopes</w>": 8839,
    "Rob": 8840,
    "w/</w>": 8841,
    "virgin": 8842,
    "ign": 8843,
    "date.</w>": 8844,
    "choic": 8845,
    "IAMA</w>": 8846,
    "soo": 8847,
    "sely</w>": 8848,
    "tear": 8849,
    "someone's</w>": 8850,
    "tually</w>": 8851,
    "nowhere</w>": 8852,
    "noi": 8853,
    "alize</w>": 8854,
    "Janu": 8855,
    "reasons.</w>": 8856,
    "**.</w>": 8857,
    "Next</w>": 8858,
    "shape</w>": 8859,
    "2-3</w>": 8860,
    "HP</w>": 8861,
    "ers": 8862,
    "etc)</w>": 8863,
    "tears</w>": 8864,
    "BE": 8865,
    "relea": 8866,
    "inside.</w>": 8867,
    "4th</w>": 8868,
    "hall": 8869,
    "shake</w>": 8870,
    "gers</w>": 8871,
    "Em": 8872,
    "Wil": 8873,
    "Tom": 8874,
    "GE": 8875,
    "$1": 8876,
    "initial</w>": 8877,
    "ry": 8878,
    "star</w>": 8879,
    "apolog": 8880,
    "table.</w>": 8881,
    "ache</w>": 8882,
    "cus": 8883,
    "lesbi": 8884,
    "Americans</w>": 8885,
    "employees</w>": 8886,
    "forth</w>": 8887,
    "want,</w>": 8888,
    "setup</w>": 8889,
    "BO": 8890,
    "August</w>": 8891,
    "Schoo": 8892,
    "yourself.</w>": 8893,
    "symptom": 8894,
    "commu": 8895,
    "watch": 8896,
    "suffering</w>": 8897,
    "caring</w>": 8898,
    "deserves</w>": 8899,
    "tag</w>": 8900,
    "cent</w>": 8901,
    "best.</w>": 8902,
    "mother.</w>": 8903,
    "artist</w>": 8904,
    "list.</w>": 8905,
    "utr": 8906,
    "area,</w>": 8907,
    "orgas": 8908,
    "chill</w>": 8909,
    "TE": 8910,
    "www": 8911,
    "causes</w>": 8912,
    "graphic</w>": 8913,
    "campus</w>": 8914,
    "clin": 8915,
    "sourc": 8916,
    "udes</w>": 8917,
    "’t.</w>": 8918,
    "pays</w>": 8919,
    "success</w>": 8920,
    "$6": 8921,
    "blog</w>": 8922,
    "360</w>": 8923,
    "different.</w>": 8924,
    "nasty</w>": 8925,
    "long-": 8926,
    "services</w>": 8927,
    "areas</w>": 8928,
    "medication</w>": 8929,
    "####": 8930,
    "earth</w>": 8931,
    "milli": 8932,
    "love,</w>": 8933,
    "ential</w>": 8934,
    "lift</w>": 8935,
    "itch</w>": 8936,
    "management</w>": 8937,
    "What’s</w>": 8938,
    "afterward": 8939,
    "tested</w>": 8940,
    "th?</w>": 8941,
    "voc": 8942,
    "Speci": 8943,
    "center</w>": 8944,
    "limit": 8945,
    "etc.)</w>": 8946,
    "alist</w>": 8947,
    "perform": 8948,
    "moment,</w>": 8949,
    "mistakes</w>": 8950,
    "(at</w>": 8951,
    "racist</w>": 8952,
    "John</w>": 8953,
    "useless</w>": 8954,
    "academ": 8955,
    "keyboard</w>": 8956,
    "reference</w>": 8957,
    "isol": 8958,
    "c.</w>": 8959,
    "alo": 8960,
    "pal</w>": 8961,
    "employed</w>": 8962,
    "princi": 8963,
    "----</w>": 8964,
    "football</w>": 8965,
    "bsky": 8966,
    "bsky.": 8967,
    "></w>": 8968,
    "traveling</w>": 8969,
    "Cal": 8970,
    "examples</w>": 8971,
    "zi": 8972,
    "mos": 8973,
    "pandemic</w>": 8974,
    "societ": 8975,
    "servers</w>": 8976,
    "blew</w>": 8977,
    "NO</w>": 8978,
    "dad,</w>": 8979,
    "aded</w>": 8980,
    "waking</w>": 8981,
    "Veg": 8982,
    "mother,</w>": 8983,
    "prescri": 8984,
    "awhile</w>": 8985,
    "benefits</w>": 8986,
    "ILL</w>": 8987,
    "unit</w>": 8988,
    "add": 8989,
    "license</w>": 8990,
    "9.99</w>": 8991,
    "ure": 8992,
    "TH</w>": 8993,
    "count": 8994,
    "stol": 8995,
    "countries</w>": 8996,
    "Don’t</w>": 8997,
    "cost": 8998,
    "town": 8999,
    "New": 9000,
    "disorder": 9001,
    "edy</w>": 9002,
    "harm</w>": 9003,
    "y**</w>": 9004,
    "\"the</w>": 9005,
    "supporting</w>": 9006,
    "John": 9007,
    "dollar</w>": 9008,
    "abov": 9009,
    "[</w>": 9010,
    "chances</w>": 9011,
    "corporate</w>": 9012,
    "like?</w>": 9013,
    "testing</w>": 9014,
    "guest": 9015,
    "pain.</w>": 9016,
    "whoever</w>": 9017,
    "aled</w>": 9018,
    "alternative</w>": 9019,
    "review": 9020,
    "amp</w>": 9021,
    "sudden</w>": 9022,
    "truck</w>": 9023,
    "igs": 9024,
    "Kore": 9025,
    "himself.</w>": 9026,
    "dering</w>": 9027,
    "26</w>": 9028,
    "rolled</w>": 9029,
    "intense</w>": 9030,
    "offers</w>": 9031,
    "Mu": 9032,
    "blah</w>": 9033,
    "se)</w>": 9034,
    "Leg": 9035,
    "remind</w>": 9036,
    "AL</w>": 9037,
    "Hopefully</w>": 9038,
    "favor</w>": 9039,
    "Por": 9040,
    "group.</w>": 9041,
    "Si": 9042,
    "ossi": 9043,
    "expressed</w>": 9044,
    "Free</w>": 9045,
    "collection</w>": 9046,
    "hook</w>": 9047,
    "fun,</w>": 9048,
    "*,</w>": 9049,
    "case.</w>": 9050,
    "device</w>": 9051,
    "tho</w>": 9052,
    "extended</w>": 9053,
    "I.</w>": 9054,
    "legally</w>": 9055,
    "communicate</w>": 9056,
    "weight.</w>": 9057,
    "by,</w>": 9058,
    "responses</w>": 9059,
    "answered</w>": 9060,
    "balls</w>": 9061,
    "atory</w>": 9062,
    "ism.</w>": 9063,
    "erring</w>": 9064,
    "sorry,</w>": 9065,
    "kip": 9066,
    "dishes</w>": 9067,
    "——": 9068,
    "hero": 9069,
    "(x": 9070,
    "whats</w>": 9071,
    "Lor": 9072,
    "reddit?</w>": 9073,
    "match": 9074,
    "tone</w>": 9075,
    "Russi": 9076,
    "AB": 9077,
    "Bra": 9078,
    "experience,</w>": 9079,
    "online.</w>": 9080,
    "WT": 9081,
    "perspective</w>": 9082,
    "ee</w>": 9083,
    "Gra": 9084,
    "Ele": 9085,
    "account,</w>": 9086,
    "body,</w>": 9087,
    "method</w>": 9088,
    "effor": 9089,
    "stated</w>": 9090,
    "past,</w>": 9091,
    "deeply</w>": 9092,
    "happiness</w>": 9093,
    "Very</w>": 9094,
    "perfec": 9095,
    "loan</w>": 9096,
    "host": 9097,
    "grandparents</w>": 9098,
    "Geor": 9099,
    "whis": 9100,
    "candid": 9101,
    "tionally</w>": 9102,
    "choices</w>": 9103,
    "community.</w>": 9104,
    "MO": 9105,
    "Although</w>": 9106,
    "June</w>": 9107,
    "ante": 9108,
    "prior": 9109,
    "evil</w>": 9110,
    "Cu": 9111,
    "minutes,</w>": 9112,
    "1/2</w>": 9113,
    "MP": 9114,
    "ath</w>": 9115,
    "Fla": 9116,
    "team.</w>": 9117,
    "score</w>": 9118,
    "\\_": 9119,
    "sake</w>": 9120,
    "trail": 9121,
    "loose</w>": 9122,
    "employee</w>": 9123,
    "does.</w>": 9124,
    "allowing</w>": 9125,
    "upset.</w>": 9126,
    "face,</w>": 9127,
    "engineering</w>": 9128,
    "Over": 9129,
    "painful</w>": 9130,
    "features</w>": 9131,
    "drive": 9132,
    "mess": 9133,
    "beca": 9134,
    "acked</w>": 9135,
    "technology</w>": 9136,
    "Pretty</w>": 9137,
    "milk</w>": 9138,
    "settings</w>": 9139,
    "attending</w>": 9140,
    "challenge</w>": 9141,
    "reminded</w>": 9142,
    "prices</w>": 9143,
    "deter": 9144,
    "se!</w>": 9145,
    "bye</w>": 9146,
    "water.</w>": 9147,
    "admitted</w>": 9148,
    "gas": 9149,
    "roughly</w>": 9150,
    "marks</w>": 9151,
    "ka</w>": 9152,
    "had.</w>": 9153,
    "femin": 9154,
    "condit": 9155,
    "Tun": 9156,
    "illegal</w>": 9157,
    "primary</w>": 9158,
    "mode</w>": 9159,
    "9.</w>": 9160,
    "suspic": 9161,
    "hundred": 9162,
    "contacted</w>": 9163,
    "package</w>": 9164,
    "shocked</w>": 9165,
    "poor": 9166,
    "accident</w>": 9167,
    "T]</w>": 9168,
    "...but</w>": 9169,
    "liking</w>": 9170,
    "White</w>": 9171,
    "van": 9172,
    "scrip": 9173,
    "kes,</w>": 9174,
    "Obama</w>": 9175,
    "ultimately</w>": 9176,
    "See</w>": 9177,
    "7.": 9178,
    "working.</w>": 9179,
    "Wednes": 9180,
    "remembered</w>": 9181,
    "sorts</w>": 9182,
    "heavily</w>": 9183,
    "suicidal</w>": 9184,
    "wid": 9185,
    "stores</w>": 9186,
    "shame</w>": 9187,
    "faster</w>": 9188,
    "explanation</w>": 9189,
    "fap</w>": 9190,
    "stops</w>": 9191,
    "weekend,</w>": 9192,
    "al)</w>": 9193,
    "excell": 9194,
    "ure.</w>": 9195,
    "ounce</w>": 9196,
    "conscious</w>": 9197,
    "belief</w>": 9198,
    "ures</w>": 9199,
    "Mid": 9200,
    "secu": 9201,
    "kind": 9202,
    "tattoo</w>": 9203,
    "acces": 9204,
    "transl": 9205,
    "RP": 9206,
    "chill": 9207,
    "insane</w>": 9208,
    "stoc": 9209,
    "brother.</w>": 9210,
    "frank": 9211,
    "thoughts?</w>": 9212,
    "replies</w>": 9213,
    "concep": 9214,
    "question:</w>": 9215,
    "belong": 9216,
    "Come</w>": 9217,
    "inno": 9218,
    "bic": 9219,
    "impact</w>": 9220,
    "believes</w>": 9221,
    "desktop</w>": 9222,
    "frame</w>": 9223,
    "city.</w>": 9224,
    "thousands</w>": 9225,
    "sured</w>": 9226,
    "Really</w>": 9227,
    "feature</w>": 9228,
    "Batt": 9229,
    "infec": 9230,
    "where": 9231,
    "said": 9232,
    "Event": 9233,
    "here:</w>": 9234,
    "repeated": 9235,
    "reven": 9236,
    "wtf</w>": 9237,
    "lifting</w>": 9238,
    "“I</w>": 9239,
    "anonym": 9240,
    "divorce</w>": 9241,
    "bars</w>": 9242,
    "Wr": 9243,
    "Updat": 9244,
    "sad.</w>": 9245,
    "apple</w>": 9246,
    "second": 9247,
    "go?</w>": 9248,
    "THIS</w>": 9249,
    "it...</w>": 9250,
    "4)</w>": 9251,
    "Plea": 9252,
    "flix</w>": 9253,
    "status</w>": 9254,
    "21": 9255,
    "Ni": 9256,
    "dangerous</w>": 9257,
    "applying</w>": 9258,
    "q</w>": 9259,
    "accompli": 9260,
    "thri": 9261,
    "answer.</w>": 9262,
    "concert</w>": 9263,
    "July</w>": 9264,
    "actively</w>": 9265,
    "not?</w>": 9266,
    "plastic</w>": 9267,
    "distri": 9268,
    "abled</w>": 9269,
    "naturally</w>": 9270,
    "Fast</w>": 9271,
    "fight": 9272,
    "decisions</w>": 9273,
    "adults</w>": 9274,
    "transit": 9275,
    "agreement</w>": 9276,
    "gall": 9277,
    "Lov": 9278,
    "levels</w>": 9279,
    "before": 9280,
    "Monday</w>": 9281,
    "brother,</w>": 9282,
    "password</w>": 9283,
    "environment</w>": 9284,
    "famous</w>": 9285,
    "Give</w>": 9286,
    "wine</w>": 9287,
    "categ": 9288,
    "erc": 9289,
    "rush</w>": 9290,
    "karma</w>": 9291,
    "voic": 9292,
    "marry</w>": 9293,
    "Unfortunately,</w>": 9294,
    "...\"</w>": 9295,
    "guys!</w>": 9296,
    "equal</w>": 9297,
    "Mex": 9298,
    ":00": 9299,
    "officially</w>": 9300,
    "bin": 9301,
    "liz": 9302,
    "decides</w>": 9303,
    "icious</w>": 9304,
    "something?</w>": 9305,
    "recommended</w>": 9306,
    "Europe": 9307,
    "hurt": 9308,
    "choice.</w>": 9309,
    "handed</w>": 9310,
    "4/": 9311,
    "suppo": 9312,
    "Yester": 9313,
    "child,</w>": 9314,
    "sound": 9315,
    "ruining</w>": 9316,
    "s..</w>": 9317,
    "affected</w>": 9318,
    "tors</w>": 9319,
    "motor": 9320,
    "digital</w>": 9321,
    "bles</w>": 9322,
    "wireless</w>": 9323,
    "possibility</w>": 9324,
    "USA</w>": 9325,
    "elop</w>": 9326,
    "=\"": 9327,
    "giv": 9328,
    "tte</w>": 9329,
    "accom": 9330,
    "forcing</w>": 9331,
    "anced</w>": 9332,
    "discussing</w>": 9333,
    "discussed</w>": 9334,
    "a:</w>": 9335,
    "Phil": 9336,
    "gained</w>": 9337,
    "welcom": 9338,
    "blog": 9339,
    "btw": 9340,
    "Afr": 9341,
    "Ori": 9342,
    "true.</w>": 9343,
    "agram</w>": 9344,
    "script</w>": 9345,
    "fiance</w>": 9346,
    "guessing</w>": 9347,
    "bothers</w>": 9348,
    "cool.</w>": 9349,
    "isnt</w>": 9350,
    "narr": 9351,
    "past.</w>": 9352,
    "then": 9353,
    "counter</w>": 9354,
    "wasting</w>": 9355,
    "interests</w>": 9356,
    "escape</w>": 9357,
    "mid-": 9358,
    "mand": 9359,
    "Lu": 9360,
    "10,</w>": 9361,
    "ophob": 9362,
    "joining</w>": 9363,
    "opposed</w>": 9364,
    "half-": 9365,
    "py": 9366,
    "breakfast</w>": 9367,
    "joy</w>": 9368,
    "die.</w>": 9369,
    "addition</w>": 9370,
    "estim": 9371,
    "Perhaps</w>": 9372,
    "Sta": 9373,
    "etc,</w>": 9374,
    "High</w>": 9375,
    "review</w>": 9376,
    "year-": 9377,
    "hardware</w>": 9378,
    "journ": 9379,
    "exec": 9380,
    "choosing</w>": 9381,
    "b/": 9382,
    "supervis": 9383,
    "act.</w>": 9384,
    "al/": 9385,
    "avoid": 9386,
    "[TOM": 9387,
    "me...</w>": 9388,
    "skip</w>": 9389,
    "portion</w>": 9390,
    "speech</w>": 9391,
    "laz": 9392,
    "grabbed</w>": 9393,
    "effici": 9394,
    "fication</w>": 9395,
    "$2": 9396,
    "disappoint": 9397,
    "country,</w>": 9398,
    "Micro": 9399,
    "ilst</w>": 9400,
    "instantly</w>": 9401,
    "instead.</w>": 9402,
    "game?</w>": 9403,
    "F)</w>": 9404,
    "w,</w>": 9405,
    "cos": 9406,
    "chann": 9407,
    "scale</w>": 9408,
    "kills</w>": 9409,
    "conservative</w>": 9410,
    "partner": 9411,
    "identify</w>": 9412,
    "ily,</w>": 9413,
    "IP": 9414,
    "champ": 9415,
    "matters</w>": 9416,
    "ed).</w>": 9417,
    "petty</w>": 9418,
    "Hello": 9419,
    "Foo": 9420,
    "craf": 9421,
    "concern": 9422,
    "action.</w>": 9423,
    "ted,</w>": 9424,
    "Sil": 9425,
    "en’t</w>": 9426,
    "tldr": 9427,
    "pus": 9428,
    "Run": 9429,
    "flag": 9430,
    "bsky.social</w>": 9431,
    "from.</w>": 9432,
    "Hi,</w>": 9433,
    "unique</w>": 9434,
    "moral</w>": 9435,
    "touch": 9436,
    "Instead</w>": 9437,
    "or?</w>": 9438,
    "screwed</w>": 9439,
    "trigg": 9440,
    "let’s</w>": 9441,
    "reduc": 9442,
    "visit": 9443,
    "j</w>": 9444,
    "7,</w>": 9445,
    "pare</w>": 9446,
    "tea</w>": 9447,
    "better": 9448,
    "ounding</w>": 9449,
    "ATX</w>": 9450,
    "water": 9451,
    "photograp": 9452,
    "doors</w>": 9453,
    "Stop</w>": 9454,
    "sales</w>": 9455,
    "tool</w>": 9456,
    "others,</w>": 9457,
    "wasted</w>": 9458,
    "Loc": 9459,
    "quot": 9460,
    "theme</w>": 9461,
    "annivers": 9462,
    "Think</w>": 9463,
    "leagu": 9464,
    "daughter": 9465,
    "scal": 9466,
    "below": 9467,
    "WW": 9468,
    "seek</w>": 9469,
    "Chinese</w>": 9470,
    "fon": 9471,
    "ol</w>": 9472,
    "shoulder</w>": 9473,
    "El": 9474,
    "please.</w>": 9475,
    "Internet</w>": 9476,
    "spring</w>": 9477,
    "dislike</w>": 9478,
    "mods</w>": 9479,
    "tastic</w>": 9480,
    "tro</w>": 9481,
    "NF": 9482,
    "gin</w>": 9483,
    "town.</w>": 9484,
    "(2</w>": 9485,
    "Thinking</w>": 9486,
    "Ja": 9487,
    "UPDATE": 9488,
    "crappy</w>": 9489,
    "inviting</w>": 9490,
    "IP</w>": 9491,
    "Dre": 9492,
    "nice,</w>": 9493,
    "DC</w>": 9494,
    "enem": 9495,
    "socially</w>": 9496,
    "boyfriend,</w>": 9497,
    "pursue</w>": 9498,
    "licen": 9499,
    "9/": 9500,
    "ster.</w>": 9501,
    "sis</w>": 9502,
    "TS</w>": 9503,
    "nigga</w>": 9504,
    "abused</w>": 9505,
    "AMA": 9506,
    "dete": 9507,
    "sky</w>": 9508,
    "develop</w>": 9509,
    "tests</w>": 9510,
    "Who": 9511,
    "stole</w>": 9512,
    "battle</w>": 9513,
    "pathetic</w>": 9514,
    "ground": 9515,
    "normal.</w>": 9516,
    "girlfriend,</w>": 9517,
    "sugar</w>": 9518,
    "customers</w>": 9519,
    "around": 9520,
    "homeless</w>": 9521,
    "fault.</w>": 9522,
    "positi": 9523,
    "www.": 9524,
    "ate?</w>": 9525,
    "City</w>": 9526,
    "sister.</w>": 9527,
    "once.</w>": 9528,
    "veri": 9529,
    "lol.</w>": 9530,
    "relax": 9531,
    "unk</w>": 9532,
    "27</w>": 9533,
    "realised</w>": 9534,
    "_</w>": 9535,
    "ok,</w>": 9536,
    "Okay</w>": 9537,
    "il.</w>": 9538,
    "plain</w>": 9539,
    "Isra": 9540,
    "dia": 9541,
    "preferably</w>": 9542,
    "read.</w>": 9543,
    "remain</w>": 9544,
    "unfair</w>": 9545,
    "baby": 9546,
    "high-": 9547,
    "suit</w>": 9548,
    "plant</w>": 9549,
    "fantasy</w>": 9550,
    "terrified</w>": 9551,
    "FOR</w>": 9552,
    "continues</w>": 9553,
    "families</w>": 9554,
    "acceptable</w>": 9555,
    "Book</w>": 9556,
    "interact</w>": 9557,
    "apartment.</w>": 9558,
    "heading</w>": 9559,
    "department</w>": 9560,
    "Tit": 9561,
    "Demo": 9562,
    "updated</w>": 9563,
    "can,</w>": 9564,
    "Hy": 9565,
    "resid": 9566,
    "failing</w>": 9567,
    "inju": 9568,
    "Won": 9569,
    "urge</w>": 9570,
    "mod</w>": 9571,
    "powerful</w>": 9572,
    "rage</w>": 9573,
    "LA": 9574,
    "course.</w>": 9575,
    "|:": 9576,
    "integr": 9577,
    "miserable</w>": 9578,
    "nice.</w>": 9579,
    "ederal</w>": 9580,
    "idiot</w>": 9581,
    "betra": 9582,
    "harm": 9583,
    "stays</w>": 9584,
    "summer.</w>": 9585,
    "feelings.</w>": 9586,
    "DM": 9587,
    "women.</w>": 9588,
    "tains</w>": 9589,
    "enn": 9590,
    "assholes</w>": 9591,
    "visited</w>": 9592,
    "true,</w>": 9593,
    "sometimes.</w>": 9594,
    "goals</w>": 9595,
    "cool": 9596,
    "listen": 9597,
    "neck</w>": 9598,
    "U.S.</w>": 9599,
    "bags</w>": 9600,
    "ker,</w>": 9601,
    "display</w>": 9602,
    "computers</w>": 9603,
    "piss</w>": 9604,
    "questions,</w>": 9605,
    "provided</w>": 9606,
    "said.</w>": 9607,
    "programm": 9608,
    "repa": 9609,
    "`</w>": 9610,
    "RR": 9611,
    "activity</w>": 9612,
    "hey,</w>": 9613,
    "ally?</w>": 9614,
    "day!</w>": 9615,
    "ing).</w>": 9616,
    "returned</w>": 9617,
    "eled</w>": 9618,
    "west</w>": 9619,
    "Especially</w>": 9620,
    "gear</w>": 9621,
    "habit</w>": 9622,
    "ative,</w>": 9623,
    "conversation.</w>": 9624,
    "Portal</w>": 9625,
    "clock</w>": 9626,
    "pro</w>": 9627,
    "lem": 9628,
    "use?</w>": 9629,
    "analy": 9630,
    "hundreds</w>": 9631,
    "sick": 9632,
    "brown</w>": 9633,
    "Linux</w>": 9634,
    "often.</w>": 9635,
    "blan": 9636,
    "technically</w>": 9637,
    "thum": 9638,
    "destroy</w>": 9639,
    "ed...</w>": 9640,
    "nab": 9641,
    "2011</w>": 9642,
    "plug</w>": 9643,
    "scary</w>": 9644,
    "tomorrow": 9645,
    "hug</w>": 9646,
    "delivery</w>": 9647,
    "troll": 9648,
    "asleep": 9649,
    "strangers</w>": 9650,
    "finishing</w>": 9651,
    "bread</w>": 9652,
    "winning</w>": 9653,
    "live.</w>": 9654,
    "Dav": 9655,
    "300</w>": 9656,
    "mile</w>": 9657,
    "5)</w>": 9658,
    "needing</w>": 9659,
    "lean</w>": 9660,
    "bass</w>": 9661,
    "assaul": 9662,
    "dog,</w>": 9663,
    "li</w>": 9664,
    "outs</w>": 9665,
    "Mil": 9666,
    "mother's</w>": 9667,
    "realizing</w>": 9668,
    "friday</w>": 9669,
    "inher": 9670,
    "focused</w>": 9671,
    "professor</w>": 9672,
    "Down": 9673,
    "awa": 9674,
    "cleaned</w>": 9675,
    "afternoon</w>": 9676,
    "console</w>": 9677,
    "Dig": 9678,
    "woman": 9679,
    "stranger</w>": 9680,
    "Ber": 9681,
    "$100</w>": 9682,
    "nut": 9683,
    "state.</w>": 9684,
    "notes</w>": 9685,
    "welcome.</w>": 9686,
    "clear": 9687,
    "aspe": 9688,
    "Dead</w>": 9689,
    "Then,</w>": 9690,
    "articles</w>": 9691,
    "or's</w>": 9692,
    "party,</w>": 9693,
    "Chicago</w>": 9694,
    "road": 9695,
    "uncomfortable.</w>": 9696,
    "ard,</w>": 9697,
    "immigr": 9698,
    "Engl": 9699,
    "important": 9700,
    "computer.</w>": 9701,
    "interested.</w>": 9702,
    "capit": 9703,
    "publi": 9704,
    "promp": 9705,
    "information.</w>": 9706,
    "”,</w>": 9707,
    "cher</w>": 9708,
    "Look</w>": 9709,
    "Sol": 9710,
    "development</w>": 9711,
    "material</w>": 9712,
    "Hol": 9713,
    "story:</w>": 9714,
    "advance!</w>": 9715,
    "90</w>": 9716,
    "loy": 9717,
    "vap": 9718,
    "inspir": 9719,
    "laying</w>": 9720,
    "problems,</w>": 9721,
    "treating</w>": 9722,
    "physic": 9723,
    "5\"</w>": 9724,
    "anyways</w>": 9725,
    "drive.</w>": 9726,
    "Engine": 9727,
    "Idk</w>": 9728,
    "calories</w>": 9729,
    "max</w>": 9730,
    "IM</w>": 9731,
    "temp": 9732,
    "stair": 9733,
    "Fol": 9734,
    "soul</w>": 9735,
    "Recently</w>": 9736,
    "Xbox</w>": 9737,
    "edge</w>": 9738,
    "7-": 9739,
    "Ter": 9740,
    "resc": 9741,
    "sni": 9742,
    "insight</w>": 9743,
    "guarante": 9744,
    "hundred</w>": 9745,
    "politics</w>": 9746,
    "valid": 9747,
    "emails</w>": 9748,
    "ison</w>": 9749,
    "honest,</w>": 9750,
    "prepare</w>": 9751,
    "HE": 9752,
    "War</w>": 9753,
    "repair</w>": 9754,
    "idea,</w>": 9755,
    "weight,</w>": 9756,
    "about": 9757,
    "wild</w>": 9758,
    "ban</w>": 9759,
    "exam</w>": 9760,
    "library</w>": 9761,
    "VER": 9762,
    "holidays</w>": 9763,
    "ence?</w>": 9764,
    "naked</w>": 9765,
    "Stat": 9766,
    "ans.</w>": 9767,
    "sage</w>": 9768,
    "-to-": 9769,
    "chr": 9770,
    "finger</w>": 9771,
    "replaced</w>": 9772,
    "space.</w>": 9773,
    "products</w>": 9774,
    "downloaded</w>": 9775,
    "charged</w>": 9776,
    "Rem": 9777,
    "fif": 9778,
    "2020</w>": 9779,
    "quote</w>": 9780,
    "ya": 9781,
    "root</w>": 9782,
    "Dad</w>": 9783,
    "shing": 9784,
    "otic</w>": 9785,
    "taxes</w>": 9786,
    "firm": 9787,
    "DS</w>": 9788,
    "browsing</w>": 9789,
    "includes</w>": 9790,
    "Sur": 9791,
    "(\"": 9792,
    "whilst</w>": 9793,
    "10.": 9794,
    "(they</w>": 9795,
    "problem?</w>": 9796,
    "t!</w>": 9797,
    "Currently</w>": 9798,
    "channel</w>": 9799,
    "ked,</w>": 9800,
    "idio": 9801,
    "design": 9802,
    "react</w>": 9803,
    "who’s</w>": 9804,
    "Hum": 9805,
    "ons,</w>": 9806,
    "word.</w>": 9807,
    "father.</w>": 9808,
    "emergency</w>": 9809,
    "bout</w>": 9810,
    "ician</w>": 9811,
    "burden</w>": 9812,
    "brac": 9813,
    "anyone,</w>": 9814,
    "wrec": 9815,
    "wedding.</w>": 9816,
    "comments.</w>": 9817,
    "hungry</w>": 9818,
    "claiming</w>": 9819,
    "Plan": 9820,
    "gratul": 9821,
    "LE</w>": 9822,
    "steal</w>": 9823,
    "lists</w>": 9824,
    "stopping</w>": 9825,
    "Pat": 9826,
    "ask.</w>": 9827,
    "!**</w>": 9828,
    "distribu": 9829,
    "guide</w>": 9830,
    "commit": 9831,
    "T-": 9832,
    "...)</w>": 9833,
    "MS</w>": 9834,
    "usi": 9835,
    "phot": 9836,
    "S,</w>": 9837,
    "sung</w>": 9838,
    "Squ": 9839,
    "gies</w>": 9840,
    "T.</w>": 9841,
    "Hear": 9842,
    "existing</w>": 9843,
    "master</w>": 9844,
    "bub": 9845,
    "issue,</w>": 9846,
    "ones.</w>": 9847,
    "jerk</w>": 9848,
    "chair</w>": 9849,
    "comic</w>": 9850,
    "engaged</w>": 9851,
    "t:</w>": 9852,
    "mentary</w>": 9853,
    "Out</w>": 9854,
    "screw</w>": 9855,
    "honestly,</w>": 9856,
    "~</w>": 9857,
    "dedicated</w>": 9858,
    "sometime</w>": 9859,
    "marijuana</w>": 9860,
    "CPU": 9861,
    "moves</w>": 9862,
    "freedom</w>": 9863,
    "OK</w>": 9864,
    "thor": 9865,
    "understand.</w>": 9866,
    "broad": 9867,
    "Kar": 9868,
    "alu": 9869,
    "adjust": 9870,
    "ope</w>": 9871,
    "andro": 9872,
    "humans</w>": 9873,
    "Yes</w>": 9874,
    "Canadian</w>": 9875,
    "forever.</w>": 9876,
    "easi": 9877,
    "feel.</w>": 9878,
    "protein</w>": 9879,
    "offended</w>": 9880,
    "pers</w>": 9881,
    "tim</w>": 9882,
    "scan": 9883,
    "personal": 9884,
    "numer": 9885,
    "TB</w>": 9886,
    "left,</w>": 9887,
    "Pau": 9888,
    "Hun": 9889,
    "EST": 9890,
    "50%</w>": 9891,
    "wife.</w>": 9892,
    "ich": 9893,
    "would've</w>": 9894,
    "ch?</w>": 9895,
    "ach.</w>": 9896,
    "logical</w>": 9897,
    "unsure</w>": 9898,
    "careful</w>": 9899,
    "Fuc": 9900,
    "frustrating</w>": 9901,
    "laundry</w>": 9902,
    "pron": 9903,
    "VER</w>": 9904,
    "cell": 9905,
    "evit": 9906,
    "external</w>": 9907,
    "weekly</w>": 9908,
    "s**</w>": 9909,
    "Tuesday</w>": 9910,
    "defend</w>": 9911,
    "woman.</w>": 9912,
    "ting.</w>": 9913,
    "33</w>": 9914,
    "chemistr": 9915,
    "support.</w>": 9916,
    "seeking</w>": 9917,
    "dealt</w>": 9918,
    "contribute</w>": 9919,
    "suggestions.</w>": 9920,
    "PLE": 9921,
    "introduced</w>": 9922,
    "Drive</w>": 9923,
    "sized</w>": 9924,
    "chest.</w>": 9925,
    "attention.</w>": 9926,
    "scientific</w>": 9927,
    "paint</w>": 9928,
    "play,</w>": 9929,
    "show.</w>": 9930,
    "skill</w>": 9931,
    "sive,</w>": 9932,
    "position": 9933,
    "owed</w>": 9934,
    "om.</w>": 9935,
    "disgusting</w>": 9936,
    "ask,</w>": 9937,
    "contrac": 9938,
    "DN": 9939,
    "semi": 9940,
    "ative.</w>": 9941,
    "tained</w>": 9942,
    "theat": 9943,
    "sexy</w>": 9944,
    "Gam": 9945,
    "Firef": 9946,
    "accepting</w>": 9947,
    "exhausted</w>": 9948,
    "EX": 9949,
    "[W]</w>": 9950,
    "falls</w>": 9951,
    "sket": 9952,
    "DO</w>": 9953,
    "tweet</w>": 9954,
    "able?</w>": 9955,
    "sister,</w>": 9956,
    "committed</w>": 9957,
    "again?</w>": 9958,
    "cases</w>": 9959,
    "jail": 9960,
    "Rel": 9961,
    "tation</w>": 9962,
    "supply</w>": 9963,
    "Gl": 9964,
    "Team</w>": 9965,
    "patter": 9966,
    "gen</w>": 9967,
    "already.</w>": 9968,
    "installing</w>": 9969,
    "forms</w>": 9970,
    "All": 9971,
    "$8": 9972,
    "util": 9973,
    "pure</w>": 9974,
    "equipment</w>": 9975,
    "bles": 9976,
    "beat": 9977,
    "meaning": 9978,
    "000</w>": 9979,
    "bro</w>": 9980,
    "0.</w>": 9981,
    "omin": 9982,
    "tie</w>": 9983,
    "II": 9984,
    "Force</w>": 9985,
    "Pro</w>": 9986,
    "sens": 9987,
    "zone</w>": 9988,
    "Card</w>": 9989,
    "plugg": 9990,
    "technical</w>": 9991,
    "rant": 9992,
    "LA</w>": 9993,
    "Hu": 9994,
    "t\"</w>": 9995,
    "bug</w>": 9996,
    "snow": 9997,
    "chocolate</w>": 9998,
    "officer</w>": 9999,
    "tf": 10000,
    "hosting</w>": 10001,
    "everytime</w>": 10002,
    "Tran": 10003,
    "tomorrow,</w>": 10004,
    "boundaries</w>": 10005,
    "E.</w>": 10006,
    "yn": 10007,
    "workers</w>": 10008,
    "sucks.</w>": 10009,
    "ally)</w>": 10010,
    "why,</w>": 10011,
    "hurt.</w>": 10012,
    "asshole,</w>": 10013,
    "typing</w>": 10014,
    "wondered</w>": 10015,
    "Proc": 10016,
    "soon,</w>": 10017,
    "ah": 10018,
    "enci": 10019,
    "CA": 10020,
    "Advice</w>": 10021,
    "spin": 10022,
    "monthly</w>": 10023,
    "format</w>": 10024,
    "campaign</w>": 10025,
    "obe": 10026,
    "bachel": 10027,
    "grandfather</w>": 10028,
    "two.</w>": 10029,
    "wish": 10030,
    "TLDR": 10031,
    "fund</w>": 10032,
    "threads</w>": 10033,
    "chap": 10034,
    "switched</w>": 10035,
    "%20": 10036,
    "pm.</w>": 10037,
    "YouTube</w>": 10038,
    "confronted</w>": 10039,
    "level.</w>": 10040,
    "64</w>": 10041,
    "anyways,</w>": 10042,
    "Compu": 10043,
    "washing</w>": 10044,
    "trip.</w>": 10045,
    "homophob": 10046,
    "divorced</w>": 10047,
    "incident</w>": 10048,
    "tonight,</w>": 10049,
    "controlling</w>": 10050,
    "future,</w>": 10051,
    "dynam": 10052,
    "Att": 10053,
[...]
